{
  "version": "1.0",
  "truncation": null,
  "padding": null,
  "added_tokens": [
    {
      "id": 0,
      "content": "<|endoftext|>",
      "single_word": false,
      "lstrip": false,
      "rstrip": false,
      "normalized": false,
      "special": true
    }
  ],
  "normalizer": null,
  "pre_tokenizer": {
    "type": "ByteLevel",
    "add_prefix_space": false,
    "trim_offsets": true,
    "use_regex": true
  },
  "post_processor": {
    "type": "ByteLevel",
    "add_prefix_space": true,
    "trim_offsets": false,
    "use_regex": true
  },
  "decoder": {
    "type": "ByteLevel",
    "add_prefix_space": true,
    "trim_offsets": true,
    "use_regex": true
  },
  "model": {
    "type": "BPE",
    "dropout": null,
    "unk_token": null,
    "continuing_subword_prefix": "",
    "end_of_word_suffix": "",
    "fuse_unk": false,
    "vocab": {
      "<|endoftext|>": 0,
      "!": 1,
      "\"": 2,
      "#": 3,
      "&": 4,
      "'": 5,
      "(": 6,
      ")": 7,
      "*": 8,
      "+": 9,
      ",": 10,
      "-": 11,
      ".": 12,
      "/": 13,
      "0": 14,
      "1": 15,
      "2": 16,
      "3": 17,
      "4": 18,
      "5": 19,
      "6": 20,
      "7": 21,
      "8": 22,
      "9": 23,
      ":": 24,
      "<": 25,
      "=": 26,
      ">": 27,
      "@": 28,
      "A": 29,
      "B": 30,
      "C": 31,
      "D": 32,
      "E": 33,
      "F": 34,
      "G": 35,
      "H": 36,
      "I": 37,
      "J": 38,
      "K": 39,
      "L": 40,
      "M": 41,
      "N": 42,
      "O": 43,
      "P": 44,
      "Q": 45,
      "R": 46,
      "S": 47,
      "T": 48,
      "U": 49,
      "V": 50,
      "W": 51,
      "X": 52,
      "Y": 53,
      "Z": 54,
      "[": 55,
      "]": 56,
      "_": 57,
      "a": 58,
      "b": 59,
      "c": 60,
      "d": 61,
      "e": 62,
      "f": 63,
      "g": 64,
      "h": 65,
      "i": 66,
      "j": 67,
      "k": 68,
      "l": 69,
      "m": 70,
      "n": 71,
      "o": 72,
      "p": 73,
      "q": 74,
      "r": 75,
      "s": 76,
      "t": 77,
      "u": 78,
      "v": 79,
      "w": 80,
      "x": 81,
      "y": 82,
      "z": 83,
      "{": 84,
      "|": 85,
      "}": 86,
      "Ġ": 87,
      "in": 88,
      "re": 89,
      "Ġf": 90,
      "er": 91,
      "et": 92,
      "Ġin": 93,
      "Ġa": 94,
      "ix": 95,
      "on": 96,
      "Ġc": 97,
      "Ġs": 98,
      "ck": 99,
      "or": 100,
      "()": 101,
      "le": 102,
      "de": 103,
      "it": 104,
      "at": 105,
      "lo": 106,
      "Ġt": 107,
      "Ġp": 108,
      "ing": 109,
      "al": 110,
      "Ġfix": 111,
      "he": 112,
      "net": 113,
      "se": 114,
      "Ġu": 115,
      "st": 116,
      "ce": 117,
      "Ġm": 118,
      "an": 119,
      "ou": 120,
      "Ġre": 121,
      "ct": 122,
      "Ġb": 123,
      "en": 124,
      "Ġd": 125,
      "ro": 126,
      "Ġw": 127,
      "ter": 128,
      "ad": 129,
      "ĠF": 130,
      "lock": 131,
      "ĠFix": 132,
      "ss": 133,
      "ion": 134,
      "ra": 135,
      "Ġi": 136,
      "Ġo": 137,
      "Ġn": 138,
      "Ġde": 139,
      "ed": 140,
      "Ġh": 141,
      "ar": 142,
      "id": 143,
      "ot": 144,
      "em": 145,
      "nd": 146,
      "il": 147,
      "ree": 148,
      "Ġfor": 149,
      "heck": 150,
      "ak": 151,
      "ue": 152,
      "Ġto": 153,
      "tr": 154,
      "ip": 155,
      "ur": 156,
      "ate": 157,
      "ma": 158,
      "io": 159,
      "sc": 160,
      "Ġuse": 161,
      "Ġon": 162,
      "ex": 163,
      "ve": 164,
      "Ġcheck": 165,
      "ble": 166,
      "Ġof": 167,
      "Ġv": 168,
      "fs": 169,
      "ent": 170,
      "ect": 171,
      "ĠR": 172,
      "dd": 173,
      "Ġpo": 174,
      "ge": 175,
      "nt": 176,
      "Ġle": 177,
      "Ġr": 178,
      "ll": 179,
      "Ġk": 180,
      "us": 181,
      "li": 182,
      "fter": 183,
      "op": 184,
      "err": 185,
      "Ġun": 186,
      "iz": 187,
      "mp": 188,
      "race": 189,
      "ock": 190,
      "ation": 191,
      "error": 192,
      "Ġadd": 193,
      "Ġmem": 194,
      "Ġerror": 195,
      "up": 196,
      "all": 197,
      "co": 198,
      "Ġlock": 199,
      "uring": 200,
      "sh": 201,
      "ut": 202,
      "free": 203,
      "ory": 204,
      "->": 205,
      "sk": 206,
      "out": 207,
      "pf": 208,
      "dev": 209,
      "Ġleak": 210,
      "ta": 211,
      "ch": 212,
      "ure": 213,
      "Ġg": 214,
      "ial": 215,
      "un": 216,
      "fo": 217,
      "and": 218,
      "lin": 219,
      "hed": 220,
      "Ġus": 221,
      "im": 222,
      "Ġmemory": 223,
      "set": 224,
      "ver": 225,
      "ith": 226,
      "loc": 227,
      "init": 228,
      "Ġfa": 229,
      "la": 230,
      "hen": 231,
      "Ġwhen": 232,
      "Ġand": 233,
      "Ġwith": 234,
      "cp": 235,
      "ly": 236,
      "Ġal": 237,
      "Ġthe": 238,
      "ilter": 239,
      "ia": 240,
      "cu": 241,
      "Ġpro": 242,
      "link": 243,
      "Ġrace": 244,
      "bpf": 245,
      "80": 246,
      "ig": 247,
      "ile": 248,
      "Ġsock": 249,
      "Ġdev": 250,
      "if": 251,
      "Ġfree": 252,
      "802": 253,
      "filter": 254,
      "vo": 255,
      "ound": 256,
      "ount": 257,
      "ize": 258,
      "map": 259,
      "8021": 260,
      "ack": 261,
      "is": 262,
      "alid": 263,
      "netfilter": 264,
      "ext": 265,
      "ice": 266,
      "after": 267,
      "mo": 268,
      "Ġhand": 269,
      "que": 270,
      "ref": 271,
      "Ġsk": 272,
      "med": 273,
      "ĠA": 274,
      "rom": 275,
      "cce": 276,
      "el": 277,
      "Ġco": 278,
      "Ġcon": 279,
      "ap": 280,
      "am": 281,
      "of": 282,
      "Ġcall": 283,
      "SA": 284,
      "pt": 285,
      "ipc": 286,
      "void": 287,
      "rm": 288,
      "Ġan": 289,
      "sched": 290,
      "ĠN": 291,
      "usb": 292,
      "ist": 293,
      "ol": 294,
      "AR": 295,
      "Ġbe": 296,
      "media": 297,
      "LL": 298,
      "Ġst": 299,
      "vent": 300,
      "80211": 301,
      "'t": 302,
      "WAR": 303,
      "Ġfrom": 304,
      "Ġacce": 305,
      "low": 306,
      "WARN": 307,
      "Ġat": 308,
      "ata": 309,
      "AL": 310,
      "age": 311,
      "bu": 312,
      "get": 313,
      "uct": 314,
      "Ġen": 315,
      "ic": 316,
      "ject": 317,
      "ode": 318,
      "ir": 319,
      "Ġremo": 320,
      "nel": 321,
      "Ġx": 322,
      "Ġnot": 323,
      "ĠRe": 324,
      "con": 325,
      "ĠU": 326,
      "Ġq": 327,
      "ork": 328,
      "Ġhandl": 329,
      "mm": 330,
      "po": 331,
      "per": 332,
      "Ġe": 333,
      "Ġafter": 334,
      "ath": 335,
      "Ġis": 336,
      "gist": 337,
      "ĠP": 338,
      "Ġread": 339,
      "VM": 340,
      "ash": 341,
      "isc": 342,
      "ive": 343,
      "str": 344,
      "ĠNU": 345,
      "ALSA": 346,
      "Ġusb": 347,
      "ĠNULL": 348,
      "lu": 349,
      "nect": 350,
      "pro": 351,
      "ul": 352,
      "CU": 353,
      "bound": 354,
      "vm": 355,
      "ĠS": 356,
      "ee": 357,
      "rcu": 358,
      "netlink": 359,
      "Ġbu": 360,
      "ĠRCU": 361,
      "cov": 362,
      "Ġdevice": 363,
      "pa": 364,
      "Ġca": 365,
      "Ġstr": 366,
      "lose": 367,
      "table": 368,
      "ls": 369,
      "Ġip": 370,
      "um": 371,
      "ull": 372,
      "ĠD": 373,
      "Ġdo": 374,
      "ame": 375,
      "OC": 376,
      "block": 377,
      "can": 378,
      "ht": 379,
      "inter": 380,
      "ite": 381,
      "fore": 382,
      "Ġbefore": 383,
      "SB": 384,
      "able": 385,
      "frm": 386,
      "Ġavoid": 387,
      "Ġset": 388,
      "Ġio": 389,
      "oth": 390,
      "ake": 391,
      "nce": 392,
      "tipc": 393,
      "ĠC": 394,
      "list": 395,
      "queue": 396,
      "let": 397,
      "wa": 398,
      "revent": 399,
      "ero": 400,
      "Ġdon": 401,
      "Ġdata": 402,
      "Ġfail": 403,
      "Ġaccess": 404,
      "gister": 405,
      "86": 406,
      "USB": 407,
      "count": 408,
      "sit": 409,
      "use": 410,
      "val": 411,
      "Ġj": 412,
      "Ġcle": 413,
      "alloc": 414,
      "Ġdead": 415,
      "Ġderef": 416,
      "Ġalloc": 417,
      "IN": 418,
      "tcp": 419,
      "zero": 420,
      "bounds": 421,
      "Ġdeadlock": 422,
      "be": 423,
      "Ġlo": 424,
      "ity": 425,
      "struct": 426,
      "Blu": 427,
      "MA": 428,
      "mem": 429,
      "nl": 430,
      "ooth": 431,
      "rou": 432,
      "etooth": 433,
      "Ġinit": 434,
      "Ġcan": 435,
      "Ġpot": 436,
      "ipv": 437,
      "mac": 438,
      "Ġvalid": 439,
      "ential": 440,
      "Bluetooth": 441,
      "Ġpotential": 442,
      "ere": 443,
      "not": 444,
      "put": 445,
      "Ġref": 446,
      "Ġby": 447,
      "lic": 448,
      "Ġskb": 449,
      "KVM": 450,
      "ning": 451,
      "Ġnet": 452,
      "rect": 453,
      "ress": 454,
      "ctp": 455,
      "Ġuninit": 456,
      "Ġremove": 457,
      "DE": 458,
      "back": 459,
      "name": 460,
      "rite": 461,
      "ort": 462,
      "Ġpointer": 463,
      "buf": 464,
      "ult": 465,
      "cur": 466,
      "Ġ\"": 467,
      "Ġsh": 468,
      "Ġpath": 469,
      "Ġhandling": 470,
      "ding": 471,
      "Ġfal": 472,
      "Ġrt": 473,
      "Ġfalse": 474,
      "__": 475,
      "valid": 476,
      "ys": 477,
      "Ġinf": 478,
      "Ġwar": 479,
      "art": 480,
      "vert": 481,
      "erence": 482,
      "ible": 483,
      "ms": 484,
      "mit": 485,
      "sure": 486,
      "tls": 487,
      "we": 488,
      "Ġ__": 489,
      "Ġfile": 490,
      "ers": 491,
      "Ġwarning": 492,
      "ON": 493,
      "cm": 494,
      "rp": 495,
      "rx": 496,
      "Ġhe": 497,
      "Ġex": 498,
      "read": 499,
      "Ġclose": 500,
      "Ġth": 501,
      "stro": 502,
      "Ġma": 503,
      "Ġne": 504,
      "stroy": 505,
      "ci": 506,
      "es": 507,
      "hh": 508,
      "ri": 509,
      "ĠI": 510,
      "Ġout": 511,
      "ĠWARN": 512,
      "int": 513,
      "Ġse": 514,
      "Ġup": 515,
      "Ġkcov": 516,
      "Ġsocket": 517,
      "Ġannot": 518,
      "ĠReject": 519,
      "OCK": 520,
      "19": 521,
      "ging": 522,
      "sock": 523,
      "ud": 524,
      "ind": 525,
      "register": 526,
      "onnect": 527,
      "Ġif": 528,
      "Ġnf": 529,
      "Ġposs": 530,
      "Ġposit": 531,
      "ializ": 532,
      "isconnect": 533,
      "Ġpositive": 534,
      "gs": 535,
      "Ġas": 536,
      "Ġsc": 537,
      "dep": 538,
      "ssing": 539,
      "imer": 540,
      "roup": 541,
      "LOCK": 542,
      "fa": 543,
      "group": 544,
      "ore": 545,
      "xfrm": 546,
      "destroy": 547,
      "tables": 548,
      "Ġpossible": 549,
      "port": 550,
      "work": 551,
      "ĠT": 552,
      "Ġlist": 553,
      "ernel": 554,
      "Ġmap": 555,
      "anup": 556,
      "add": 557,
      "DEP": 558,
      "193": 559,
      "Ġpositives": 560,
      "LOCKDEP": 561,
      "DMA": 562,
      "cre": 563,
      "par": 564,
      "th": 565,
      "anity": 566,
      "Ġhash": 567,
      "Ġchecks": 568,
      "acket": 569,
      "ase": 570,
      "yn": 571,
      "info": 572,
      "Ġinvalid": 573,
      "Ġtr": 574,
      "adv": 575,
      "1939": 576,
      "ID": 577,
      "RDMA": 578,
      "ca": 579,
      "ds": 580,
      "ey": 581,
      "lk": 582,
      "node": 583,
      "to": 584,
      "vl": 585,
      "Ġit": 586,
      "less": 587,
      "ded": 588,
      "Ġpage": 589,
      "stop": 590,
      "ant": 591,
      "ader": 592,
      "Ġnon": 593,
      "lete": 594,
      "Ġloop": 595,
      "curs": 596,
      "Ġannotate": 597,
      "Ġsched": 598,
      "ib": 599,
      "mc": 600,
      "ub": 601,
      "Ġ-": 602,
      "ĠG": 603,
      "ĠM": 604,
      "Ġar": 605,
      "Ġch": 606,
      "Ġcor": 607,
      "Ġsanity": 608,
      "Ġpa": 609,
      "Ġdisconnect": 610,
      "Ġlen": 611,
      "unnel": 612,
      "Ġensure": 613,
      "ĠUse": 614,
      "Ġipset": 615,
      "licy": 616,
      "ty": 617,
      "wn": 618,
      "Ġsize": 619,
      "sch": 620,
      "Ġrcu": 621,
      "Ġkernel": 622,
      "Ġget": 623,
      "Ġcomp": 624,
      "fg": 625,
      "issing": 626,
      "ment": 627,
      "pe": 628,
      "rc": 629,
      "so": 630,
      "tect": 631,
      "Ġsta": 632,
      "Ġtipc": 633,
      "Ġmissing": 634,
      "Ġrecurs": 635,
      "Ġbit": 636,
      "Ġhci": 637,
      "comp": 638,
      "skb": 639,
      "ight": 640,
      "quest": 641,
      "ĠAdd": 642,
      "Ġstate": 643,
      "Ġqu": 644,
      "Ġcleanup": 645,
      "Ġdereference": 646,
      "du": 647,
      "ict": 648,
      "ld": 649,
      "sctp": 650,
      "Ġzero": 651,
      "Ġinter": 652,
      "ions": 653,
      "empt": 654,
      "ime": 655,
      "Ġsockmap": 656,
      "ĠAvoid": 657,
      "Ġfailure": 658,
      "Ġvalidate": 659,
      "fd": 660,
      "ptr": 661,
      "ated": 662,
      "ram": 663,
      "Ġop": 664,
      "Ġnull": 665,
      "old": 666,
      "ĠPrevent": 667,
      "ialized": 668,
      "flow": 669,
      "rup": 670,
      "Ġare": 671,
      "Ġbet": 672,
      "Ġwork": 673,
      "try": 674,
      "opy": 675,
      "cpu": 676,
      "ift": 677,
      "Ġcont": 678,
      "irq": 679,
      "point": 680,
      "rpc": 681,
      "rupt": 682,
      "check": 683,
      "do": 684,
      "fer": 685,
      "hash": 686,
      "rtr": 687,
      "ĠO": 688,
      "leak": 689,
      "atch": 690,
      "Ġpre": 691,
      "ouble": 692,
      "Ġret": 693,
      "Ġdouble": 694,
      "Ġover": 695,
      "urn": 696,
      "user": 697,
      "device": 698,
      "lab": 699,
      "Ġshift": 700,
      "Ġrecursion": 701,
      "HID": 702,
      "fb": 703,
      "qu": 704,
      "sp": 705,
      "ser": 706,
      "smc": 707,
      "ition": 708,
      "Ġprevent": 709,
      "alt": 710,
      "Ġmake": 711,
      "oun": 712,
      "ctl": 713,
      "Ġduring": 714,
      "Ġdis": 715,
      "msg": 716,
      "RE": 717,
      "UE": 718,
      "bind": 719,
      "rt": 720,
      "wit": 721,
      "ĠE": 722,
      "Ġinst": 723,
      "attr": 724,
      "Ġta": 725,
      "alue": 726,
      "rack": 727,
      "ily": 728,
      "Ġonly": 729,
      "Ġvalue": 730,
      "Ġaddress": 731,
      "utex": 732,
      "Ġallow": 733,
      "Ġprotect": 734,
      "probe": 735,
      "ĠDon": 736,
      "Ġrefcount": 737,
      "rxrpc": 738,
      "antum": 739,
      "witch": 740,
      "25": 741,
      "gth": 742,
      "mot": 743,
      "ry": 744,
      "inet": 745,
      "Ġce": 746,
      "():": 747,
      "end": 748,
      "ill": 749,
      "Ġkvm": 750,
      "Ġlocking": 751,
      "ialize": 752,
      "oft": 753,
      "Ġhandler": 754,
      "Ġstruct": 755,
      "ways": 756,
      "ween": 757,
      "create": 758,
      "Ġquantum": 759,
      "Ġbetween": 760,
      "Ġreturn": 761,
      "mote": 762,
      "rypt": 763,
      "ain": 764,
      "dp": 765,
      "dition": 766,
      "om": 767,
      "size": 768,
      "Ġinfo": 769,
      "lease": 770,
      "ans": 771,
      "ange": 772,
      "rol": 773,
      "Ġwrite": 774,
      "rastruct": 775,
      "Ġpolicy": 776,
      "Ġlockdep": 777,
      "Ġgen": 778,
      "Ġhandle": 779,
      "Ġbug": 780,
      "value": 781,
      "Ġinfrastruct": 782,
      "parse": 783,
      "Ġcell": 784,
      "Ġinfrastructure": 785,
      "54": 786,
      "Re": 787,
      "aud": 788,
      "lus": 789,
      "ns": 790,
      "pp": 791,
      "sim": 792,
      "xx": 793,
      "Ġext": 794,
      "remote": 795,
      "Ġcra": 796,
      "sta": 797,
      "Ġreject": 798,
      "genetlink": 799,
      "Ġlockless": 800,
      "Ġalways": 801,
      "Ġattr": 802,
      "Ġremoval": 803,
      "Ġqrtr": 804,
      "eee": 805,
      "Ġcorrect": 806,
      "empty": 807,
      "oftirq": 808,
      "Revert": 809,
      "as": 810,
      "che": 811,
      "fou": 812,
      "file": 813,
      "kcov": 814,
      "mily": 815,
      "ok": 816,
      "si": 817,
      "sse": 818,
      "softirq": 819,
      "ust": 820,
      "ĠB": 821,
      "ĠK": 822,
      "red": 823,
      "eth": 824,
      "Ġte": 825,
      "send": 826,
      "Ġmo": 827,
      "ance": 828,
      "Ġrequest": 829,
      "Ġbpf": 830,
      "Ġdi": 831,
      "raw": 832,
      "Ġhh": 833,
      "mptcp": 834,
      "ations": 835,
      "Ġerrors": 836,
      "Ġfamily": 837,
      "802154": 838,
      "pace": 839,
      "Ġnetdev": 840,
      "Ġmac": 841,
      "Ġupd": 842,
      "ync": 843,
      "Ġlength": 844,
      "Ġdisable": 845,
      "'s": 846,
      "AT": 847,
      "ET": 848,
      "afs": 849,
      "man": 850,
      "non": 851,
      "ool": 852,
      "ting": 853,
      "wq": 854,
      "write": 855,
      "Ġl": 856,
      "Ġqueue": 857,
      "Ġad": 858,
      "Ġsp": 859,
      "atman": 860,
      "log": 861,
      "Ġtc": 862,
      "Ġper": 863,
      "Ġmer": 864,
      "limit": 865,
      "Ġunb": 866,
      "Ġuser": 867,
      "lay": 868,
      "ign": 869,
      "Ġcore": 870,
      "irt": 871,
      "Ġcase": 872,
      "wait": 873,
      "Ġuninitialized": 874,
      "weight": 875,
      "hhf": 876,
      "Ġaround": 877,
      "Ġbitmap": 878,
      "Ġhhf": 879,
      "ave": 880,
      "cma": 881,
      "cnt": 882,
      "cfg": 883,
      "ead": 884,
      "fin": 885,
      "rq": 886,
      "ron": 887,
      "sr": 888,
      "tp": 889,
      "vt": 890,
      "rec": 891,
      "Ġfb": 892,
      "Ġsctp": 893,
      "Ġslab": 894,
      "dex": 895,
      "deref": 896,
      "Ġtunnel": 897,
      "sec": 898,
      "cess": 899,
      "ous": 900,
      "ction": 901,
      "Ġbr": 902,
      "Ġrid": 903,
      "allback": 904,
      "Ġfault": 905,
      "Ġproper": 906,
      "bug": 907,
      "Ġxfrm": 908,
      "Ġstrict": 909,
      "ĠCheck": 910,
      "used": 911,
      "Ġseq": 912,
      "letely": 913,
      "ĠGUE": 914,
      "Ġcompletely": 915,
      "compat": 916,
      "ounded": 917,
      "rypto": 918,
      "sses": 919,
      "Ġunbounded": 920,
      "CE": 921,
      "close": 922,
      "drm": 923,
      "fuse": 924,
      "ide": 925,
      "key": 926,
      "packet": 927,
      "tx": 928,
      "Ġfla": 929,
      "etht": 930,
      "Ġinet": 931,
      "Ġass": 932,
      "Ġcgroup": 933,
      "len": 934,
      "del": 935,
      "Ġtimer": 936,
      "header": 937,
      "Ġmore": 938,
      "Ġieee": 939,
      "Ġoper": 940,
      "ard": 941,
      "ute": 942,
      "inite": 943,
      "Ġprobe": 944,
      "iled": 945,
      "Ġbuf": 946,
      "Ġcaused": 947,
      "Ġallocation": 948,
      "Ġinfinite": 949,
      "Ġinstead": 950,
      "audio": 951,
      "lush": 952,
      "Ġcrash": 953,
      "staging": 954,
      "ethtool": 955,
      "00": 956,
      "RO": 957,
      "af": 958,
      "ait": 959,
      "batman": 960,
      "cle": 961,
      "cing": 962,
      "data": 963,
      "disc": 964,
      "ish": 965,
      "mb": 966,
      "ne": 967,
      "Ġll": 968,
      "ream": 969,
      "Ġfs": 970,
      "Ġcre": 971,
      "Ġcount": 972,
      "Ġsup": 973,
      "Ġtcp": 974,
      "Ġtime": 975,
      "Ġpacket": 976,
      "Ġmount": 977,
      "our": 978,
      "Ġirq": 979,
      "Ġhold": 980,
      "idge": 981,
      "ipe": 982,
      "core": 983,
      "Ġfailed": 984,
      "ify": 985,
      "Ġcondition": 986,
      "Ġstring": 987,
      "ING": 988,
      "Ġrtnl": 989,
      "river": 990,
      "Ġpass": 991,
      "Ġoverflow": 992,
      "64": 993,
      "blk": 994,
      "cap": 995,
      "dma": 996,
      "hw": 997,
      "ire": 998,
      "min": 999,
      "sg": 1000,
      "tun": 1001,
      "ucount": 1002,
      "ĠV": 1003,
      "Ġ->": 1004,
      "index": 1005,
      "Ġfallback": 1006,
      "onding": 1007,
      "Ġcopy": 1008,
      "Ġudp": 1009,
      "Ġme": 1010,
      "Ġmutex": 1011,
      "Ġreg": 1012,
      "Ġblk": 1013,
      "Ġwait": 1014,
      "lockdep": 1015,
      "Ġchecking": 1016,
      "ops": 1017,
      "ally": 1018,
      "Ġusing": 1019,
      "Ġraces": 1020,
      "Ġcode": 1021,
      "SAN": 1022,
      "Ġstat": 1023,
      "Ġaccesses": 1024,
      "Ġend": 1025,
      "eep": 1026,
      "Ġclear": 1027,
      "Ġinitialize": 1028,
      "Ġcance": 1029,
      "Ġheader": 1030,
      "Ġnew": 1031,
      "ĠIP": 1032,
      "fault": 1033,
      "ĠTC": 1034,
      "rcv": 1035,
      "sert": 1036,
      "attrbuf": 1037,
      "Ġtask": 1038,
      "Ġgener": 1039,
      "Ġmerging": 1040,
      "ucounts": 1041,
      "AD": 1042,
      "bonding": 1043,
      "for": 1044,
      "gh": 1045,
      "gain": 1046,
      "hu": 1047,
      "kvm": 1048,
      "lb": 1049,
      "mq": 1050,
      "mount": 1051,
      "tunnel": 1052,
      "ving": 1053,
      "xmit": 1054,
      "Ġempty": 1055,
      "Ġflush": 1056,
      "erfs": 1057,
      "Ġinode": 1058,
      "Ġagain": 1059,
      "Ġsrc": 1060,
      "Ġswitch": 1061,
      "Ġtable": 1062,
      "Ġpar": 1063,
      "Ġrest": 1064,
      "Ġbound": 1065,
      "rop": 1066,
      "Ġwh": 1067,
      "Ġoss": 1068,
      "Ġtoo": 1069,
      "Ġpoll": 1070,
      "Ġkey": 1071,
      "Ġunregister": 1072,
      "task": 1073,
      "igh": 1074,
      "ifi": 1075,
      "iserfs": 1076,
      "Ġconnect": 1077,
      "ĠRead": 1078,
      "Ġqdisc": 1079,
      "poll": 1080,
      "Ġele": 1081,
      "Ġreads": 1082,
      "proc": 1083,
      "Ġbugs": 1084,
      "Ġdevices": 1085,
      "nodes": 1086,
      "ibute": 1087,
      "Ġchange": 1088,
      "Ġopen": 1089,
      "Ġtest": 1090,
      "irtio": 1091,
      "NO": 1092,
      "OB": 1093,
      "PO": 1094,
      "TR": 1095,
      "cla": 1096,
      "cgroup": 1097,
      "ec": 1098,
      "gin": 1099,
      "ious": 1100,
      "md": 1101,
      "vb": 1102,
      "xsk": 1103,
      "Ġlink": 1104,
      "ĠVM": 1105,
      "rent": 1106,
      "Ġsy": 1107,
      "ord": 1108,
      "led": 1109,
      "Ġpart": 1110,
      "Ġregister": 1111,
      "Ġdu": 1112,
      "Ġnl": 1113,
      "Ġdebug": 1114,
      "cont": 1115,
      "Ġnetns": 1116,
      "Ġrtnetlink": 1117,
      "Ġfiles": 1118,
      "ONCE": 1119,
      "Ġheld": 1120,
      "Ġthis": 1121,
      "face": 1122,
      "addr": 1123,
      "Ġops": 1124,
      "Ġcontrol": 1125,
      "Ġattribute": 1126,
      ")_": 1127,
      "AN": 1128,
      "bd": 1129,
      "crypto": 1130,
      "ove": 1131,
      "pr": 1132,
      "ration": 1133,
      "sub": 1134,
      "vide": 1135,
      "war": 1136,
      "Ġro": 1137,
      "release": 1138,
      "reiserfs": 1139,
      "Ġfib": 1140,
      "Ġaf": 1141,
      "Ġcal": 1142,
      "Ġcfg": 1143,
      "Ġsil": 1144,
      "load": 1145,
      "Ġty": 1146,
      "Ġpcm": 1147,
      "netrom": 1148,
      "sent": 1149,
      "Ġund": 1150,
      "Ġmode": 1151,
      "Ġbad": 1152,
      "entry": 1153,
      "Ġdvb": 1154,
      "racing": 1155,
      "Ġic": 1156,
      "Ġopt": 1157,
      "ioctl": 1158,
      "Ġvm": 1159,
      "Ġrdma": 1160,
      "opt": 1161,
      "Ġleaks": 1162,
      "Ġusage": 1163,
      "very": 1164,
      "cul": 1165,
      "Ġprog": 1166,
      "ifname": 1167,
      "pag": 1168,
      "Ġsetting": 1169,
      "Ġdeadlocks": 1170,
      "ression": 1171,
      "ysfs": 1172,
      "cast": 1173,
      "vlan": 1174,
      "Ġinterrupt": 1175,
      "Ġcontext": 1176,
      "Ġprotection": 1177,
      "finish": 1178,
      "Ġbridge": 1179,
      "Ġproperly": 1180,
      "Ġbuffer": 1181,
      "mbol": 1182,
      "Ġwhile": 1183,
      "Ġsymbol": 1184,
      "Ġsilly": 1185,
      "Ġunder": 1186,
      "ER": 1187,
      "ach": 1188,
      "ber": 1189,
      "cs": 1190,
      "copy": 1191,
      "fq": 1192,
      "fix": 1193,
      "hold": 1194,
      "ling": 1195,
      "ovl": 1196,
      "page": 1197,
      "pic": 1198,
      "timer": 1199,
      "tty": 1200,
      "vs": 1201,
      "Ġ'": 1202,
      "Ġem": 1203,
      "Ġeth": 1204,
      "Ġfull": 1205,
      "Ġint": 1206,
      "Ġinvo": 1207,
      "Ġac": 1208,
      "one": 1209,
      "Ġser": 1210,
      "Ġsure": 1211,
      "Ġsile": 1212,
      "Ġsend": 1213,
      "ors": 1214,
      "netdev": 1215,
      "sted": 1216,
      "Ġreset": 1217,
      "Ġrevert": 1218,
      "Ġbc": 1219,
      "Ġbro": 1220,
      "ending": 1221,
      "ray": 1222,
      "Ġhid": 1223,
      "trans": 1224,
      "mack": 1225,
      "exp": 1226,
      "open": 1227,
      "mple": 1228,
      "mpit": 1229,
      "unregister": 1230,
      "lace": 1231,
      "Ġwithout": 1232,
      "Ġcomm": 1233,
      "getlb": 1234,
      "connect": 1235,
      "Ġear": 1236,
      "Ġevent": 1237,
      "gistration": 1238,
      "process": 1239,
      "vmsg": 1240,
      "ĠDo": 1241,
      "Ġfails": 1242,
      "rough": 1243,
      "Ġinitializ": 1244,
      "Ġreference": 1245,
      "Ġthrough": 1246,
      "ĠWARNING": 1247,
      "cache": 1248,
      "Ġcorrupt": 1249,
      "dule": 1250,
      "Ġinterface": 1251,
      "ĠOOB": 1252,
      "Ġdirect": 1253,
      "Ġflag": 1254,
      "ource": 1255,
      "Ġoverflows": 1256,
      "Ġendpoint": 1257,
      "DP": 1258,
      "IT": 1259,
      "LIN": 1260,
      "RB": 1261,
      "_{": 1262,
      "di": 1263,
      "event": 1264,
      "fcnt": 1265,
      "ger": 1266,
      "hc": 1267,
      "ies": 1268,
      "ially": 1269,
      "ken": 1270,
      "lan": 1271,
      "mon": 1272,
      "og": 1273,
      "sq": 1274,
      "time": 1275,
      "Ġ&": 1276,
      "ĠX": 1277,
      "Ġraw": 1278,
      "Ġlimit": 1279,
      "Ġlay": 1280,
      "inode": 1281,
      "request": 1282,
      "Ġfi": 1283,
      "etect": 1284,
      "Ġinput": 1285,
      "Ġab": 1286,
      "Ġall": 1287,
      "Ġsub": 1288,
      "destruct": 1289,
      "iter": 1290,
      "ating": 1291,
      "Ġtrack": 1292,
      "Ġpe": 1293,
      "Ġput": 1294,
      "stat": 1295,
      "Ġdue": 1296,
      "Ġdrop": 1297,
      "locking": 1298,
      "ssue": 1299,
      "Ġig": 1300,
      "Ġissue": 1301,
      "Ġno": 1302,
      "Ġdelet": 1303,
      "emove": 1304,
      "exit": 1305,
      "ĠRE": 1306,
      "ĠRemove": 1307,
      "shmem": 1308,
      "chron": 1309,
      "local": 1310,
      "iag": 1311,
      "ĠUDP": 1312,
      "policy": 1313,
      "Ġexit": 1314,
      "riv": 1315,
      "Ġsockets": 1316,
      "Ġnft": 1317,
      "ynchron": 1318,
      "rtimer": 1319,
      "asan": 1320,
      "Ġupdate": 1321,
      "clear": 1322,
      "Ġtimeout": 1323,
      "Ġbounds": 1324,
      "class": 1325,
      "Ġpartially": 1326,
      "Ġtype": 1327,
      "Ġbroken": 1328,
      "Ġinitialization": 1329,
      "fcntl": 1330,
      "500": 1331,
      "FS": 1332,
      "In": 1333,
      "SI": 1334,
      "ST": 1335,
      "ax": 1336,
      "bit": 1337,
      "btr": 1338,
      "bfs": 1339,
      "bject": 1340,
      "cb": 1341,
      "gre": 1342,
      "hsr": 1343,
      "ke": 1344,
      "lper": 1345,
      "no": 1346,
      "ph": 1347,
      "ped": 1348,
      "trace": 1349,
      "ucma": 1350,
      "vfs": 1351,
      "Ġ0": 1352,
      "ĠL": 1353,
      "insert": 1354,
      "reak": 1355,
      "Ġfilter": 1356,
      "Ġinc": 1357,
      "Ġctx": 1358,
      "Ġsq": 1359,
      "oration": 1360,
      "ator": 1361,
      "Ġtree": 1362,
      "Ġtrace": 1363,
      "Ġtun": 1364,
      "netdevice": 1365,
      "Ġrec": 1366,
      "Ġres": 1367,
      "Ġreport": 1368,
      "Ġrelease": 1369,
      "ctx": 1370,
      "enable": 1371,
      "ssage": 1372,
      "Ġid": 1373,
      "Ġname": 1374,
      "Ġdel": 1375,
      "Ġhol": 1376,
      "arge": 1377,
      "argin": 1378,
      "ota": 1379,
      "ild": 1380,
      "ĠRT": 1381,
      "ntrack": 1382,
      "Ġrx": 1383,
      "Ġright": 1384,
      "Ġkfree": 1385,
      "ized": 1386,
      "upd": 1387,
      "oute": 1388,
      "line": 1389,
      "ific": 1390,
      "Ġskip": 1391,
      "ĠAl": 1392,
      "Ġcalls": 1393,
      "Ġstream": 1394,
      "Ġentry": 1395,
      "Ġxt": 1396,
      "ĠURB": 1397,
      "posure": 1398,
      "Ġevery": 1399,
      "Ġipv": 1400,
      "Ġrtl": 1401,
      "Ġexposure": 1402,
      "Ġthat": 1403,
      "Ġmax": 1404,
      "Ġtrans": 1405,
      "Ġworker": 1406,
      "down": 1407,
      "omic": 1408,
      "Ġfbcon": 1409,
      "Ġoperation": 1410,
      "hwsim": 1411,
      "Ġregression": 1412,
      "Ġgeneral": 1413,
      "Ġagainst": 1414,
      "Ġrestoration": 1415,
      "Ġethnl": 1416,
      "Ġsilence": 1417,
      "mplement": 1418,
      "Input": 1419,
      "btrfs": 1420,
      "12": 1421,
      "81": 1422,
      "::": 1423,
      "CM": 1424,
      "ED": 1425,
      "EN": 1426,
      "FO": 1427,
      "FP": 1428,
      "NL": 1429,
      "QPO": 1430,
      "SET": 1431,
      "TU": 1432,
      "are": 1433,
      "driver": 1434,
      "diag": 1435,
      "eve": 1436,
      "gp": 1437,
      "gic": 1438,
      "kasan": 1439,
      "lving": 1440,
      "mutex": 1441,
      "nf": 1442,
      "nbd": 1443,
      "pre": 1444,
      "path": 1445,
      "pipe": 1446,
      "sing": 1447,
      "sync": 1448,
      "ux": 1449,
      "ule": 1450,
      "uard": 1451,
      "vc": 1452,
      "Ġz": 1453,
      "Ġnetlink": 1454,
      "ĠIN": 1455,
      "Ġord": 1456,
      "Ġfra": 1457,
      "Ġinto": 1458,
      "Ġcls": 1459,
      "Ġsnd": 1460,
      "Ġsch": 1461,
      "Ġspace": 1462,
      "orrect": 1463,
      "().": 1464,
      "loop": 1465,
      "Ġpr": 1466,
      "Ġpending": 1467,
      "alk": 1468,
      "alance": 1469,
      "seq": 1470,
      "state": 1471,
      "start": 1472,
      "cell": 1473,
      "Ġmult": 1474,
      "ansit": 1475,
      "Ġrep": 1476,
      "Ġrestr": 1477,
      "Ġregistration": 1478,
      "Ġblock": 1479,
      "Ġback": 1480,
      "Ġbog": 1481,
      "Ġdriver": 1482,
      "adget": 1483,
      "Ġdefer": 1484,
      "Ġhw": 1485,
      "Ġhsr": 1486,
      "ark": 1487,
      "otp": 1488,
      "ipso": 1489,
      "scr": 1490,
      "scsi": 1491,
      "Ġvb": 1492,
      "Ġvar": 1493,
      "Ġkill": 1494,
      "Ġkeep": 1495,
      "Ġunlock": 1496,
      "Ġmemleak": 1497,
      "Ġlocks": 1498,
      "Ġgsp": 1499,
      "unc": 1500,
      "Ġusers": 1501,
      "Ġalso": 1502,
      "Ġpropag": 1503,
      "Ġfreeing": 1504,
      "api": 1505,
      "Ġcallback": 1506,
      "Ġaccept": 1507,
      "Ġath": 1508,
      "ĠPut": 1509,
      "ĠSQPO": 1510,
      "Ġioctl": 1511,
      "ware": 1512,
      "Ġvalidation": 1513,
      "Ġhashtable": 1514,
      "Ġtransit": 1515,
      "ĠMake": 1516,
      "type": 1517,
      "Ġpresent": 1518,
      "fbmem": 1519,
      "Ġtag": 1520,
      "Ġrefcounting": 1521,
      "Ġextra": 1522,
      "Ġcorrectly": 1523,
      "sendmsg": 1524,
      "Ġmodule": 1525,
      "Ġrequests": 1526,
      "Ġupdated": 1527,
      "Ġspl": 1528,
      "ignal": 1529,
      "Ġsuper": 1530,
      "Ġsupport": 1531,
      "Ġpackets": 1532,
      "Ġmessage": 1533,
      "hugetlb": 1534,
      "Ġelem": 1535,
      "control": 1536,
      "Ġcalcul": 1537,
      "Ġicmp": 1538,
      "Ġinvolving": 1539,
      "Ġbcsp": 1540,
      "Ġcorruption": 1541,
      "LINE": 1542,
      "Ġlayer": 1543,
      "destructor": 1544,
      "Ġholding": 1545,
      "update": 1546,
      "Ġorder": 1547,
      "Ġrestrict": 1548,
      "Ġbogus": 1549,
      "Ġgspca": 1550,
      "Ġuserspace": 1551,
      "ĠSQPOLL": 1552,
      "Ġtransition": 1553,
      "AF": 1554,
      "BU": 1555,
      "CP": 1556,
      "DI": 1557,
      "IC": 1558,
      "PRO": 1559,
      "UN": 1560,
      "act": 1561,
      "ail": 1562,
      "cy": 1563,
      "disconnect": 1564,
      "fig": 1565,
      "gram": 1566,
      "ho": 1567,
      "hy": 1568,
      "hid": 1569,
      "ise": 1570,
      "object": 1571,
      "part": 1572,
      "rds": 1573,
      "route": 1574,
      "smack": 1575,
      "sized": 1576,
      "ucce": 1577,
      "virtio": 1578,
      "watch": 1579,
      "Ġ1": 1580,
      "Ġy": 1581,
      "Ġla": 1582,
      "Ġlocal": 1583,
      "Ġline": 1584,
      "req": 1585,
      "Ġfun": 1586,
      "Ġax": 1587,
      "Ġact": 1588,
      "Ġaut": 1589,
      "Ġarp": 1590,
      "Ġashmem": 1591,
      "Ġsl": 1592,
      "Ġsus": 1593,
      "Ġsysfs": 1594,
      "Ġsucce": 1595,
      "lob": 1596,
      "Ġtak": 1597,
      "Ġtty": 1598,
      "Ġpad": 1599,
      "Ġpipe": 1600,
      "Ġfixed": 1601,
      "store": 1602,
      "stream": 1603,
      "Ġmis": 1604,
      "Ġmcast": 1605,
      "ouch": 1606,
      "Ġdetect": 1607,
      "locks": 1608,
      "rap": 1609,
      "Ġimplement": 1610,
      "Ġoops": 1611,
      "Ġnum": 1612,
      "Ġhave": 1613,
      "ipt": 1614,
      "Ġvirtio": 1615,
      "Ġunix": 1616,
      "Ġadding": 1617,
      "tab": 1618,
      "Ġgue": 1619,
      "unlock": 1620,
      "fown": 1621,
      "setup": 1622,
      "Ġproc": 1623,
      "extra": 1624,
      "Ġconcur": 1625,
      "Ġconntrack": 1626,
      "Ġstart": 1627,
      "Ġatomic": 1628,
      "ĠUAF": 1629,
      "perf": 1630,
      "ĠPro": 1631,
      "Ġusbhid": 1632,
      "prog": 1633,
      "ĠSM": 1634,
      "Ġcache": 1635,
      "ume": 1636,
      "letion": 1637,
      "Ġjust": 1638,
      "Ġwarnings": 1639,
      "Ġexec": 1640,
      "Ġneigh": 1641,
      "Ġnested": 1642,
      "rior": 1643,
      "Ġasix": 1644,
      "thread": 1645,
      "infoleak": 1646,
      "Ġcompletion": 1647,
      "Ġstack": 1648,
      "Ġpreempt": 1649,
      "ounter": 1650,
      "ĠEx": 1651,
      "Ġvalues": 1652,
      "files": 1653,
      "writeback": 1654,
      "Ġtcf": 1655,
      "recvmsg": 1656,
      "Ġassume": 1657,
      "Ġoperations": 1658,
      "Ġllsec": 1659,
      "Ġcreation": 1660,
      "caps": 1661,
      "ĠVT": 1662,
      "ĠTCA": 1663,
      "ĠTCP": 1664,
      "Ġopenvs": 1665,
      "ĠVMX": 1666,
      "Ġdebugfs": 1667,
      "prio": 1668,
      "picious": 1669,
      "Ġcommit": 1670,
      "Ġabout": 1671,
      "stats": 1672,
      "ĠREAD": 1673,
      "ĠRTNL": 1674,
      "ĠAllow": 1675,
      "script": 1676,
      "Ġpropagate": 1677,
      "PROT": 1678,
      "Ġsuspicious": 1679,
      "Ġopenvswitch": 1680,
      "28": 1681,
      "32": 1682,
      "364": 1683,
      "ASAN": 1684,
      "IG": 1685,
      "LA": 1686,
      "LI": 1687,
      "LO": 1688,
      "Lite": 1689,
      "OM": 1690,
      "PF": 1691,
      "UP": 1692,
      "_[": 1693,
      "ac": 1694,
      "ast": 1695,
      "balloc": 1696,
      "cg": 1697,
      "dc": 1698,
      "dgram": 1699,
      "fat": 1700,
      "fers": 1701,
      "gfs": 1702,
      "gment": 1703,
      "guard": 1704,
      "hd": 1705,
      "hand": 1706,
      "ie": 1707,
      "kt": 1708,
      "kms": 1709,
      "kill": 1710,
      "late": 1711,
      "mi": 1712,
      "ng": 1713,
      "nal": 1714,
      "nore": 1715,
      "ow": 1716,
      "ook": 1717,
      "pkt": 1718,
      "ring": 1719,
      "sup": 1720,
      "sist": 1721,
      "ued": 1722,
      "uart": 1723,
      "vr": 1724,
      "vkms": 1725,
      "wire": 1726,
      "yo": 1727,
      "Ġ*": 1728,
      "ĠH": 1729,
      "ĠW": 1730,
      "Ġli": 1731,
      "res": 1732,
      "Ġfin": 1733,
      "Ġinsert": 1734,
      "ixer": 1735,
      "Ġcrypto": 1736,
      "Ġsi": 1737,
      "Ġsm": 1738,
      "Ġsource": 1739,
      "Ġsynchron": 1740,
      "Ġsignal": 1741,
      "delete": 1742,
      "lot": 1743,
      "Ġtp": 1744,
      "Ġtt": 1745,
      "Ġtx": 1746,
      "Ġtracing": 1747,
      "Ġpull": 1748,
      "Ġpriv": 1749,
      "alg": 1750,
      "stem": 1751,
      "Ġmeth": 1752,
      "Ġmargin": 1753,
      "Ġmballoc": 1754,
      "Ġreq": 1755,
      "Ġbind": 1756,
      "enter": 1757,
      "Ġdma": 1758,
      "Ġwron": 1759,
      "ssion": 1760,
      "rams": 1761,
      "Ġib": 1762,
      "Ġnapi": 1763,
      "Ġdelay": 1764,
      "edge": 1765,
      "Ġhu": 1766,
      "Ġhook": 1767,
      "ary": 1768,
      "iphy": 1769,
      "vec": 1770,
      "Ġoff": 1771,
      "Ġvt": 1772,
      "Ġring": 1773,
      "Ġrio": 1774,
      "llc": 1775,
      "lier": 1776,
      "Ġunlink": 1777,
      "Ġaddr": 1778,
      "code": 1779,
      "urex": 1780,
      "unix": 1781,
      "imum": 1782,
      "iable": 1783,
      "Ġproce": 1784,
      "moyo": 1785,
      "queued": 1786,
      "medi": 1787,
      "ĠAn": 1788,
      "usbip": 1789,
      "Ġnotific": 1790,
      "Ġeb": 1791,
      "Ġisotp": 1792,
      "ĠScell": 1793,
      "pare": 1794,
      "Ġcaref": 1795,
      "ument": 1796,
      "blocking": 1797,
      "Ġsetup": 1798,
      "Ġclean": 1799,
      "allocate": 1800,
      "Ġallocate": 1801,
      "ipvs": 1802,
      "Ġhelper": 1803,
      "Ġmagic": 1804,
      "Ġsepar": 1805,
      "sockopt": 1806,
      "udp": 1807,
      "worker": 1808,
      "ĠTX": 1809,
      "Ġtrig": 1810,
      "tomoyo": 1811,
      "vlv": 1812,
      "Ġarg": 1813,
      "Ġarray": 1814,
      "pec": 1815,
      "duce": 1816,
      "Ġzerocopy": 1817,
      "Ġworkqueue": 1818,
      "quir": 1819,
      "binder": 1820,
      "Ġattrs": 1821,
      "ĠKeep": 1822,
      "ĠKASAN": 1823,
      "Ġmove": 1824,
      "Ġdisabled": 1825,
      "ATE": 1826,
      "Ġadded": 1827,
      "Ġtcindex": 1828,
      "recv": 1829,
      "Ġtunnels": 1830,
      "Ġflags": 1831,
      "new": 1832,
      "neigh": 1833,
      "Ġllc": 1834,
      "Ġirqs": 1835,
      "minix": 1836,
      "Ġmesh": 1837,
      "Ġcancel": 1838,
      "Ġcancell": 1839,
      "faultfd": 1840,
      "huge": 1841,
      "ified": 1842,
      "Ġdumpit": 1843,
      "video": 1844,
      "Ġoption": 1845,
      "Ġearlier": 1846,
      "Ġdirectory": 1847,
      "disk": 1848,
      "hcd": 1849,
      "Ġincorrect": 1850,
      "Ġreports": 1851,
      "Ġfrags": 1852,
      "Ġhwsim": 1853,
      "Ġvariable": 1854,
      "Ġsplat": 1855,
      "Ġcalculation": 1856,
      "Ġyurex": 1857,
      "Ġpreemption": 1858,
      "super": 1859,
      "sistent": 1860,
      "wireguard": 1861,
      "Ġmetho": 1862,
      "Ġwrong": 1863,
      "Ġseparate": 1864,
      "\"->": 1865,
      "72": 1866,
      "712": 1867,
      "881": 1868,
      "8712": 1869,
      "BSAN": 1870,
      "EX": 1871,
      "IOC": 1872,
      "NE": 1873,
      "NFS": 1874,
      "ab": 1875,
      "action": 1876,
      "by": 1877,
      "bio": 1878,
      "cli": 1879,
      "crypt": 1880,
      "cipso": 1881,
      "dm": 1882,
      "dic": 1883,
      "evt": 1884,
      "epoll": 1885,
      "fy": 1886,
      "fra": 1887,
      "fork": 1888,
      "fram": 1889,
      "gen": 1890,
      "gem": 1891,
      "gtp": 1892,
      "her": 1893,
      "hrtimer": 1894,
      "irect": 1895,
      "just": 1896,
      "lp": 1897,
      "lr": 1898,
      "lor": 1899,
      "mat": 1900,
      "mou": 1901,
      "match": 1902,
      "pu": 1903,
      "plic": 1904,
      "qrtr": 1905,
      "rate": 1906,
      "run": 1907,
      "sb": 1908,
      "sn": 1909,
      "sion": 1910,
      "sig": 1911,
      "slab": 1912,
      "squ": 1913,
      "sysfs": 1914,
      "tc": 1915,
      "te": 1916,
      "track": 1917,
      "tracing": 1918,
      "tvlv": 1919,
      "wake": 1920,
      "wifi": 1921,
      "yper": 1922,
      "ystem": 1923,
      "ĠQ": 1924,
      "ĠMA": 1925,
      "Ġgenetlink": 1926,
      "inlock": 1927,
      "rece": 1928,
      "reen": 1929,
      "reset": 1930,
      "remo": 1931,
      "Ġfq": 1932,
      "Ġflow": 1933,
      "Ġfuse": 1934,
      "ert": 1935,
      "Ġcss": 1936,
      "Ġsit": 1937,
      "Ġsel": 1938,
      "leas": 1939,
      "lection": 1940,
      "debug": 1941,
      "Ġtake": 1942,
      "Ġpid": 1943,
      "Ġport": 1944,
      "Ġplace": 1945,
      "alf": 1946,
      "Ġmin": 1947,
      "Ġmmap": 1948,
      "Ġmixer": 1949,
      "ang": 1950,
      "Ġreleas": 1951,
      "ctr": 1952,
      "Ġbio": 1953,
      "Ġbase": 1954,
      "Ġbreak": 1955,
      "Ġdst": 1956,
      "Ġwalk": 1957,
      "Ġoom": 1958,
      "Ġnext": 1959,
      "Ġndo": 1960,
      "Ġdestruct": 1961,
      "Ġdelete": 1962,
      "Ġhso": 1963,
      "Ġhrtimer": 1964,
      "Ġhalf": 1965,
      "aring": 1966,
      "emp": 1967,
      "trunc": 1968,
      "vel": 1969,
      "Ġver": 1970,
      "gered": 1971,
      "Ġleave": 1972,
      "Ġrds": 1973,
      "Ġkcm": 1974,
      "lify": 1975,
      "Ġunit": 1976,
      "mplify": 1977,
      "devlink": 1978,
      "taprio": 1979,
      "change": 1980,
      "Ġgso": 1981,
      "Ġgadget": 1982,
      "linux": 1983,
      "isize": 1984,
      "isable": 1985,
      "Ġcalling": 1986,
      "rmware": 1987,
      "Ġanoth": 1988,
      "Ġstop": 1989,
      "Ġstall": 1990,
      "ĠRevert": 1991,
      "conn": 1992,
      "condition": 1993,
      "VMX": 1994,
      "ashfs": 1995,
      "ĠSC": 1996,
      "htc": 1997,
      "Ġiowar": 1998,
      "ĠCON": 1999,
      "IND": 2000,
      "INFO": 2001,
      "Ġload": 2002,
      "Ġlook": 2003,
      "memory": 2004,
      "Ġinitialized": 2005,
      "macvlan": 2006,
      "notate": 2007,
      "Ġpointers": 2008,
      "Ġhead": 2009,
      "Ġthread": 2010,
      "ĠIF": 2011,
      "Ġupon": 2012,
      "socket": 2013,
      "udf": 2014,
      "workqueue": 2015,
      "Ġmapped": 2016,
      "Ġiter": 2017,
      "Ġschedule": 2018,
      "ĠGFP": 2019,
      "Ġchain": 2020,
      "Ġcompat": 2021,
      "Ġquota": 2022,
      "dump": 2023,
      "dumpit": 2024,
      "points": 2025,
      "userfaultfd": 2026,
      "fbcon": 2027,
      "quire": 2028,
      "RESI": 2029,
      "ĠBH": 2030,
      "Ġmod": 2031,
      "Ġmacvlan": 2032,
      "Ġadjust": 2033,
      "Ġspinlock": 2034,
      "Ġbuffers": 2035,
      "afe": 2036,
      "Ġcreate": 2037,
      "Ġmounting": 2038,
      "ADD": 2039,
      "Ġflushing": 2040,
      "Ġparsing": 2041,
      "Ġunregistering": 2042,
      "context": 2043,
      "print": 2044,
      "submit": 2045,
      "options": 2046,
      "Ġaccount": 2047,
      "Ġserial": 2048,
      "Ġhiddev": 2049,
      "Ġearly": 2050,
      "Ġendpoints": 2051,
      "Ġfiel": 2052,
      "Ġtracker": 2053,
      "Ġignore": 2054,
      "tracepoint": 2055,
      "ENT": 2056,
      "drivers": 2057,
      "prepare": 2058,
      "Ġzr": 2059,
      "Ġmodules": 2060,
      "Ġsuperblock": 2061,
      "BUG": 2062,
      "host": 2063,
      "smackfs": 2064,
      "Ġauto": 2065,
      "lobal": 2066,
      "Ġtaken": 2067,
      "Ġnumber": 2068,
      "Ġconcurrent": 2069,
      "Ġdelayed": 2070,
      "Ġprocessing": 2071,
      "ĠAnnotate": 2072,
      "Ġebtables": 2073,
      "Ġmagicmou": 2074,
      "Ġargument": 2075,
      "Ġcancellation": 2076,
      "client": 2077,
      "frame": 2078,
      "plicit": 2079,
      "squashfs": 2080,
      "tracker": 2081,
      "ĠMAC": 2082,
      "receive": 2083,
      "Ġflowtable": 2084,
      "Ġreleasing": 2085,
      "Ġanother": 2086,
      "Ġiowarrior": 2087,
      "ĠCONF": 2088,
      "RESIZ": 2089,
      "Ġmagicmouse": 2090,
      "Ar": 2091,
      "FC": 2092,
      "Fix": 2093,
      "GA": 2094,
      "GE": 2095,
      "GM": 2096,
      "GO": 2097,
      "HA": 2098,
      "IO": 2099,
      "MU": 2100,
      "OL": 2101,
      "OR": 2102,
      "PI": 2103,
      "RM": 2104,
      "RR": 2105,
      "SE": 2106,
      "SH": 2107,
      "Size": 2108,
      "WOR": 2109,
      "YN": 2110,
      "av": 2111,
      "acon": 2112,
      "bl": 2113,
      "br": 2114,
      "bid": 2115,
      "base": 2116,
      "batch": 2117,
      "css": 2118,
      "ched": 2119,
      "dq": 2120,
      "dst": 2121,
      "dup": 2122,
      "dir": 2123,
      "ep": 2124,
      "eys": 2125,
      "each": 2126,
      "eger": 2127,
      "fi": 2128,
      "fam": 2129,
      "fill": 2130,
      "ga": 2131,
      "hci": 2132,
      "iv": 2133,
      "ieee": 2134,
      "ired": 2135,
      "kernel": 2136,
      "kobject": 2137,
      "lip": 2138,
      "me": 2139,
      "mt": 2140,
      "mid": 2141,
      "nfs": 2142,
      "nly": 2143,
      "next": 2144,
      "ntry": 2145,
      "own": 2146,
      "pi": 2147,
      "ping": 2148,
      "pan": 2149,
      "pen": 2150,
      "pes": 2151,
      "priv": 2152,
      "rg": 2153,
      "rw": 2154,
      "rad": 2155,
      "rtab": 2156,
      "she": 2157,
      "space": 2158,
      "safe": 2159,
      "slip": 2160,
      "tf": 2161,
      "tu": 2162,
      "tes": 2163,
      "vice": 2164,
      "vsock": 2165,
      "wmem": 2166,
      "wind": 2167,
      "xdp": 2168,
      "Ġlow": 2169,
      "ink": 2170,
      "inquir": 2171,
      "reed": 2172,
      "Ġfir": 2173,
      "Ġfds": 2174,
      "Ġfram": 2175,
      "Ġfreed": 2176,
      "ermin": 2177,
      "ets": 2178,
      "Ġincon": 2179,
      "Ġaud": 2180,
      "Ġaction": 2181,
      "ond": 2182,
      "Ġcur": 2183,
      "Ġcset": 2184,
      "Ġcap": 2185,
      "Ġcmd": 2186,
      "Ġcounter": 2187,
      "Ġcdc": 2188,
      "Ġsb": 2189,
      "Ġsmc": 2190,
      "Ġsync": 2191,
      "orm": 2192,
      "lex": 2193,
      "level": 2194,
      "itors": 2195,
      "ative": 2196,
      "Ġtw": 2197,
      "Ġtim": 2198,
      "Ġtermin": 2199,
      "Ġpref": 2200,
      "Ġplu": 2201,
      "Ġpvr": 2202,
      "allow": 2203,
      "align": 2204,
      "Ġfixes": 2205,
      "stmap": 2206,
      "cel": 2207,
      "ceusb": 2208,
      "Ġmd": 2209,
      "Ġmon": 2210,
      "Ġmnt": 2211,
      "Ġmatch": 2212,
      "Ġmtu": 2213,
      "Ġmceusb": 2214,
      "ano": 2215,
      "Ġred": 2216,
      "Ġrefs": 2217,
      "Ġrename": 2218,
      "ctls": 2219,
      "ctions": 2220,
      "Ġbat": 2221,
      "Ġbcm": 2222,
      "Ġbond": 2223,
      "ension": 2224,
      "Ġdang": 2225,
      "rose": 2226,
      "roid": 2227,
      "Ġwusb": 2228,
      "Ġwake": 2229,
      "Ġwlan": 2230,
      "Ġwiphy": 2231,
      "locked": 2232,
      "lockless": 2233,
      "ssf": 2234,
      "Ġih": 2235,
      "Ġima": 2236,
      "Ġnbd": 2237,
      "Ġdestroy": 2238,
      "Ġdefault": 2239,
      "Ġdescript": 2240,
      "Ġdedic": 2241,
      "Ġhyper": 2242,
      "ards": 2243,
      "ement": 2244,
      "Ġforwar": 2245,
      "Ġtoget": 2246,
      "trust": 2247,
      "tries": 2248,
      "main": 2249,
      "iod": 2250,
      "screen": 2251,
      "exec": 2252,
      "Ġoffs": 2253,
      "Ġvc": 2254,
      "Ġvhci": 2255,
      "Ġrad": 2256,
      "llback": 2257,
      "Ġkeys": 2258,
      "ush": 2259,
      "lib": 2260,
      "lice": 2261,
      "Ġuntrust": 2262,
      "com": 2263,
      "comm": 2264,
      "Ġlocked": 2265,
      "Ġgra": 2266,
      "Ġgfs": 2267,
      "Ġgpf": 2268,
      "Ġglobal": 2269,
      "imize": 2270,
      "Ġfastmap": 2271,
      "Ġandroid": 2272,
      "Ġprocess": 2273,
      "ision": 2274,
      "alidate": 2275,
      "ĠAss": 2276,
      "Ġconst": 2277,
      "Ġconfig": 2278,
      "app": 2279,
      "olve": 2280,
      "Ġbeh": 2281,
      "Ġbeacon": 2282,
      "build": 2283,
      "Ġentries": 2284,
      "ics": 2285,
      "icast": 2286,
      "Ġxsk": 2287,
      "ĠUBSAN": 2288,
      "mmy": 2289,
      "Ġeach": 2290,
      "Ġreading": 2291,
      "Ġusbip": 2292,
      "lude": 2293,
      "ulation": 2294,
      "ĠSet": 2295,
      "Ġcaif": 2296,
      "Ġipip": 2297,
      "ully": 2298,
      "Ġdoes": 2299,
      "cancel": 2300,
      "interrupt": 2301,
      "itech": 2302,
      "Ġioctls": 2303,
      "ĠCo": 2304,
      "ĠCon": 2305,
      "ĠCle": 2306,
      "Ġaccessing": 2307,
      "memcg": 2308,
      "Ġvalidity": 2309,
      "Ġrefcnt": 2310,
      "Ġskbs": 2311,
      "DEV": 2312,
      "backlog": 2313,
      "buff": 2314,
      "Ġsharing": 2315,
      "validate": 2316,
      "Ġexc": 2317,
      "Ġneed": 2318,
      "ĠID": 2319,
      "ĠIn": 2320,
      "Ġselection": 2321,
      "Ġannotation": 2322,
      "Ġasync": 2323,
      "fail": 2324,
      "Ġlistify": 2325,
      "address": 2326,
      "crement": 2327,
      "Ġtry": 2328,
      "advance": 2329,
      "Ġpages": 2330,
      "ĠMark": 2331,
      "Ġcha": 2332,
      "Ġchan": 2333,
      "Ġparam": 2334,
      "peer": 2335,
      "Ġstale": 2336,
      "Ġrecursive": 2337,
      "Ġbitset": 2338,
      "ldisc": 2339,
      "checked": 2340,
      "hashlimit": 2341,
      "ĠOGM": 2342,
      "ĠOnly": 2343,
      "Ġprec": 2344,
      "Ġoversized": 2345,
      "fbdev": 2346,
      "quota": 2347,
      "rtc": 2348,
      "ĠERR": 2349,
      "Ġinstall": 2350,
      "Ġprotected": 2351,
      "Ġkvmalloc": 2352,
      "Ġinfoleak": 2353,
      "audit": 2354,
      "ppp": 2355,
      "Ġcrashe": 2356,
      "ĠBPF": 2357,
      "Ġdivide": 2358,
      "ATTR": 2359,
      "Ġlon": 2360,
      "Ġlarge": 2361,
      "Ġpercpu": 2362,
      "Ġperiod": 2363,
      "Ġmerge": 2364,
      "Ġassign": 2365,
      "Ġassert": 2366,
      "cleanup": 2367,
      "ĠValidate": 2368,
      "Ġcopying": 2369,
      "Ġregul": 2370,
      "Ġstatement": 2371,
      "ĠIPSET": 2372,
      "Ġtasks": 2373,
      "Ġelement": 2374,
      "POL": 2375,
      "Ġdummy": 2376,
      "Ġnlmsg": 2377,
      "Ġfilesystem": 2378,
      "ANGE": 2379,
      "Ġrose": 2380,
      "Ġroot": 2381,
      "Ġcalled": 2382,
      "paged": 2383,
      "Ġ'_": 2384,
      "Ġinteger": 2385,
      "netdevsim": 2386,
      "Ġhidraw": 2387,
      "expand": 2388,
      "Ġdirections": 2389,
      "ĠXAr": 2390,
      "Ġrawmid": 2391,
      "Ġfirmware": 2392,
      "Ġpeak": 2393,
      "Ġigmp": 2394,
      "Ġdeleting": 2395,
      "Ġrecord": 2396,
      "Ġrecvmsg": 2397,
      "arer": 2398,
      "nfc": 2399,
      "ĠINIT": 2400,
      "Ġmulticast": 2401,
      "Ġreplace": 2402,
      "LINENO": 2403,
      "CPU": 2404,
      "Ġfunctions": 2405,
      "Ġsuccessf": 2406,
      "ĠProtect": 2407,
      "ĠSMC": 2408,
      "Ġexecve": 2409,
      "ĠExplicit": 2410,
      "PROTO": 2411,
      "mission": 2412,
      "ĠWrite": 2413,
      "Ġlive": 2414,
      "Ġfinish": 2415,
      "Ġinsertions": 2416,
      "Ġsimplify": 2417,
      "Ġoffload": 2418,
      "Ġcareful": 2419,
      "Ġtriggered": 2420,
      "hugepaged": 2421,
      "Ġmethods": 2422,
      "abling": 2423,
      "lru": 2424,
      "debugfs": 2425,
      "Ġnexth": 2426,
      "emplate": 2427,
      "truncate": 2428,
      "Ġverify": 2429,
      "Ġfields": 2430,
      "ĠCONFIG": 2431,
      "WORK": 2432,
      "bridge": 2433,
      "family": 2434,
      "inquiry": 2435,
      "Ġfirst": 2436,
      "Ġframes": 2437,
      "Ġinconsistent": 2438,
      "Ġaudit": 2439,
      "Ġcurrent": 2440,
      "Ġplugin": 2441,
      "Ġdangling": 2442,
      "Ġwusbcore": 2443,
      "Ġdedicated": 2444,
      "Ġforwarding": 2445,
      "Ġtogether": 2446,
      "Ġuntrusted": 2447,
      "Ġparamet": 2448,
      "Ġcrashes": 2449,
      "ĠXArray": 2450,
      "Ġrawmidi": 2451,
      "ĠExplicitly": 2452,
      "*()": 2453,
      "06": 2454,
      "11": 2455,
      "78": 2456,
      "==": 2457,
      "AG": 2458,
      "AI": 2459,
      "AM": 2460,
      "CSAN": 2461,
      "CLO": 2462,
      "DC": 2463,
      "FQ": 2464,
      "FAI": 2465,
      "GRO": 2466,
      "GFP": 2467,
      "HP": 2468,
      "IP": 2469,
      "KIND": 2470,
      "Ls": 2471,
      "MP": 2472,
      "NFC": 2473,
      "PT": 2474,
      "PTR": 2475,
      "QU": 2476,
      "QUE": 2477,
      "RQ": 2478,
      "RCU": 2479,
      "SO": 2480,
      "Sta": 2481,
      "Smack": 2482,
      "TLs": 2483,
      "VE": 2484,
      "WA": 2485,
      "WB": 2486,
      "ass": 2487,
      "aut": 2488,
      "amed": 2489,
      "ared": 2490,
      "bs": 2491,
      "bro": 2492,
      "bar": 2493,
      "bus": 2494,
      "cop": 2495,
      "counter": 2496,
      "db": 2497,
      "disable": 2498,
      "ev": 2499,
      "ele": 2500,
      "fere": 2501,
      "find": 2502,
      "flush": 2503,
      "flex": 2504,
      "gal": 2505,
      "gro": 2506,
      "gra": 2507,
      "gup": 2508,
      "gative": 2509,
      "hif": 2510,
      "jo": 2511,
      "khugepaged": 2512,
      "lc": 2513,
      "lle": 2514,
      "lated": 2515,
      "large": 2516,
      "lwifi": 2517,
      "mr": 2518,
      "mu": 2519,
      "met": 2520,
      "mlock": 2521,
      "mig": 2522,
      "mmap": 2523,
      "misc": 2524,
      "margin": 2525,
      "mmedi": 2526,
      "null": 2527,
      "ncy": 2528,
      "oc": 2529,
      "os": 2530,
      "ofs": 2531,
      "ollback": 2532,
      "pad": 2533,
      "pia": 2534,
      "pending": 2535,
      "rio": 2536,
      "rsi": 2537,
      "sw": 2538,
      "sal": 2539,
      "snd": 2540,
      "srcu": 2541,
      "spa": 2542,
      "sum": 2543,
      "sfq": 2544,
      "slot": 2545,
      "tree": 2546,
      "tclass": 2547,
      "touch": 2548,
      "template": 2549,
      "ual": 2550,
      "unt": 2551,
      "ump": 2552,
      "vd": 2553,
      "vator": 2554,
      "vhost": 2555,
      "with": 2556,
      "wext": 2557,
      "walk": 2558,
      "wdm": 2559,
      "xfs": 2560,
      "yload": 2561,
      "ze": 2562,
      "}()": 2563,
      "ĠJ": 2564,
      "Ġor": 2565,
      "Ġra": 2566,
      "Ġerr": 2567,
      "ĠKVM": 2568,
      "Ġ500": 2569,
      "Ġ==": 2570,
      "reser": 2571,
      "resize": 2572,
      "registration": 2573,
      "Ġfat": 2574,
      "Ġfallocate": 2575,
      "ery": 2576,
      "etach": 2577,
      "Ġindex": 2578,
      "Ġaio": 2579,
      "Ġacp": 2580,
      "Ġapp": 2581,
      "Ġapi": 2582,
      "ont": 2583,
      "only": 2584,
      "Ġct": 2585,
      "Ġcla": 2586,
      "Ġcpia": 2587,
      "Ġcsum": 2588,
      "Ġsing": 2589,
      "Ġslot": 2590,
      "Ġspec": 2591,
      "()\"": 2592,
      "defin": 2593,
      "itor": 2594,
      "ited": 2595,
      "itialize": 2596,
      "atory": 2597,
      "Ġtra": 2598,
      "Ġtap": 2599,
      "Ġtouch": 2600,
      "Ġpin": 2601,
      "Ġpan": 2602,
      "Ġpur": 2603,
      "Ġpub": 2604,
      "Ġppp": 2605,
      "Ġpneigh": 2606,
      "Ġpush": 2607,
      "alize": 2608,
      "head": 2609,
      "helper": 2610,
      "netem": 2611,
      "sem": 2612,
      "selinux": 2613,
      "Ġuvc": 2614,
      "Ġurg": 2615,
      "stim": 2616,
      "ceph": 2617,
      "Ġmal": 2618,
      "Ġmpt": 2619,
      "Ġmcb": 2620,
      "anot": 2621,
      "ould": 2622,
      "ough": 2623,
      "Ġreco": 2624,
      "Ġrepa": 2625,
      "Ġrework": 2626,
      "Ġrecla": 2627,
      "Ġrelated": 2628,
      "Ġbus": 2629,
      "Ġbdev": 2630,
      "Ġbatman": 2631,
      "Ġbalance": 2632,
      "ence": 2633,
      "ended": 2634,
      "encap": 2635,
      "Ġdup": 2636,
      "Ġdrm": 2637,
      "Ġdisc": 2638,
      "Ġdyn": 2639,
      "roduce": 2640,
      "Ġwe": 2641,
      "Ġwq": 2642,
      "tern": 2643,
      "ading": 2644,
      "adcast": 2645,
      "ĠFor": 2646,
      "ssi": 2647,
      "Ġille": 2648,
      "Ġovl": 2649,
      "Ġown": 2650,
      "Ġnfs": 2651,
      "Ġnla": 2652,
      "Ġnode": 2653,
      "ĠnVMX": 2654,
      "Ġnamed": 2655,
      "Ġdecomp": 2656,
      "Ġdentry": 2657,
      "Ġhard": 2658,
      "arp": 2659,
      "ardown": 2660,
      "idle": 2661,
      "uevent": 2662,
      "trig": 2663,
      "uration": 2664,
      "mask": 2665,
      "Ġone": 2666,
      "Ġonce": 2667,
      "Ġvs": 2668,
      "Ġvia": 2669,
      "Ġvirt": 2670,
      "Ġvide": 2671,
      "Ġvlan": 2672,
      "Ġvga": 2673,
      "Ġviv": 2674,
      "ĠvCPU": 2675,
      "ĠRio": 2676,
      "ĠRollback": 2677,
      "Ġpolic": 2678,
      "ntfs": 2679,
      "ntly": 2680,
      "Ġrw": 2681,
      "Ġrun": 2682,
      "Ġrunt": 2683,
      "Ġka": 2684,
      "Ġunbound": 2685,
      "Ġunified": 2686,
      "ization": 2687,
      "mpro": 2688,
      "races": 2689,
      "Ġmember": 2690,
      "Ġmempolicy": 2691,
      "show": 2692,
      "utdown": 2693,
      "Ġleaking": 2694,
      "tail": 2695,
      "chan": 2696,
      "char": 2697,
      "chain": 2698,
      "Ġgrace": 2699,
      "Ġgtp": 2700,
      "andle": 2701,
      "imit": 2702,
      "sets": 2703,
      "versal": 2704,
      "last": 2705,
      "linkwatch": 2706,
      "Ġsockptr": 2707,
      "ife": 2708,
      "extension": 2709,
      "more": 2710,
      "module": 2711,
      "ĠAcce": 2712,
      "Ġcomedi": 2713,
      "Ġcolor": 2714,
      "Ġconso": 2715,
      "amic": 2716,
      "ĠNHA": 2717,
      "Ġbeing": 2718,
      "LLOC": 2719,
      "lowat": 2720,
      "Ġenable": 2721,
      "Ġenabling": 2722,
      "Ġenough": 2723,
      "Ġremoving": 2724,
      "Ġxattr": 2725,
      "Ġnotsent": 2726,
      "ĠReset": 2727,
      "conf": 2728,
      "config": 2729,
      "ĠUSB": 2730,
      "ĠUWB": 2731,
      "post": 2732,
      "pointer": 2733,
      "ĠPM": 2734,
      "ĠPCM": 2735,
      "ĠSOCK": 2736,
      "param": 2737,
      "params": 2738,
      "Ġcached": 2739,
      "ĠDe": 2740,
      "ĠDrop": 2741,
      "ĠDetect": 2742,
      "Ġdown": 2743,
      "Ġdomain": 2744,
      "OCOL": 2745,
      "OCTLs": 2746,
      "Ġiov": 2747,
      "ĠCR": 2748,
      "Ġfailing": 2749,
      "Ġjour": 2750,
      "Ġjited": 2751,
      "Ġallocations": 2752,
      "Ġallocating": 2753,
      "Ġallocator": 2754,
      "bearer": 2755,
      "Ġlog": 2756,
      "mempolicy": 2757,
      "membar": 2758,
      "notify": 2759,
      "Ġbytes": 2760,
      "licate": 2761,
      "Ġnetlb": 2762,
      "Ġinform": 2763,
      "Ġexp": 2764,
      "Ġnegative": 2765,
      "rier": 2766,
      "ĠIRQ": 2767,
      "ĠIOCTLs": 2768,
      "Ġseg": 2769,
      "Ġsegment": 2770,
      "Ġasynchron": 2771,
      "ĠTx": 2772,
      "ĠTHP": 2773,
      "crease": 2774,
      "advise": 2775,
      "Ġits": 2776,
      "Ġpagesets": 2777,
      "ants": 2778,
      "ubi": 2779,
      "ĠGRO": 2780,
      "ĠMS": 2781,
      "ĠMTU": 2782,
      "ĠMPOL": 2783,
      "Ġchild": 2784,
      "Ġparent": 2785,
      "Ġparams": 2786,
      "Ġpayload": 2787,
      "Ġdisconnection": 2788,
      "Ġstab": 2789,
      "complete": 2790,
      "Ġinternal": 2791,
      "label": 2792,
      "quired": 2793,
      "RED": 2794,
      "REQ": 2795,
      "rtnetlink": 2796,
      "rtlwifi": 2797,
      "Ġinstance": 2798,
      "endpoint": 2799,
      "Ġstructure": 2800,
      "Ġgeneve": 2801,
      "lusive": 2802,
      "xxx": 2803,
      "ĠKCSAN": 2804,
      "redirect": 2805,
      "Ġmacro": 2806,
      "ATOM": 2807,
      "Ġlate": 2808,
      "Ġsplice": 2809,
      "Ġpernet": 2810,
      "seccomp": 2811,
      "Ġfaulty": 2812,
      "Ġstricter": 2813,
      "packets": 2814,
      "length": 2815,
      "delrec": 2816,
      "nested": 2817,
      "Ġllcp": 2818,
      "Ġfsmount": 2819,
      "Ġwaiting": 2820,
      "Ġwaitqueue": 2821,
      "Ġstats": 2822,
      "Ġstatic": 2823,
      "Ġgeneration": 2824,
      "form": 2825,
      "force": 2826,
      "Ġparse": 2827,
      "Ġparano": 2828,
      "Ġrestore": 2829,
      "tasks": 2830,
      "NOFAI": 2831,
      "TRA": 2832,
      "mdio": 2833,
      "Ġlinkwatch": 2834,
      "Ġdump": 2835,
      "ANTU": 2836,
      "warn": 2837,
      "Ġoptions": 2838,
      "Ġoptimize": 2839,
      "Ġinterrupts": 2840,
      "Ġunderflow": 2841,
      "pages": 2842,
      "Ġematch": 2843,
      "Ġemulation": 2844,
      "Ġfully": 2845,
      "Ġintroduce": 2846,
      "Ġinvoke": 2847,
      "Ġacquire": 2848,
      "Ġsendmsg": 2849,
      "expmask": 2850,
      "Ġcommand": 2851,
      "Ġevents": 2852,
      "ources": 2853,
      "monitors": 2854,
      "sqe": 2855,
      "timeout": 2856,
      "Ġinputs": 2857,
      "Ġabort": 2858,
      "Ġsubprog": 2859,
      "Ġissues": 2860,
      "Ġnoise": 2861,
      "Ġdeletion": 2862,
      "Ġdeleted": 2863,
      "Ġinclude": 2864,
      "Ġsqd": 2865,
      "Ġsqo": 2866,
      "Ġtracepoints": 2867,
      "Ġtuning": 2868,
      "Ġresol": 2869,
      "Ġresources": 2870,
      "Ġnames": 2871,
      "Ġrxrpc": 2872,
      "ĠURBs": 2873,
      "Ġmaximum": 2874,
      "Ġtransport": 2875,
      "Ġtransfer": 2876,
      "gpu": 2877,
      "ĠINET": 2878,
      "Ġspaces": 2879,
      "Ġprint": 2880,
      "Ġmultip": 2881,
      "hugetlbfs": 2882,
      "DIAG": 2883,
      "Ġlast": 2884,
      "Ġfunction": 2885,
      "Ġarptables": 2886,
      "Ġslhc": 2887,
      "Ġsucceed": 2888,
      "Ġpadata": 2889,
      "Ġpadding": 2890,
      "Ġdetected": 2891,
      "Ġimplementation": 2892,
      "Ġguest": 2893,
      "ĠSMM": 2894,
      "PROTOCOL": 2895,
      "acity": 2896,
      "handle": 2897,
      "Ġ*_": 2898,
      "ĠHandle": 2899,
      "result": 2900,
      "resolve": 2901,
      "Ġsmk": 2902,
      "Ġsynchronize": 2903,
      "Ġsynchronization": 2904,
      "Ġhugetlb": 2905,
      "Ġnotification": 2906,
      "Ġnotifications": 2907,
      "Ġhelpers": 2908,
      "88172": 2909,
      "frag": 2910,
      "geneve": 2911,
      "running": 2912,
      "wakeup": 2913,
      "ĠQP": 2914,
      "remove": 2915,
      "Ġminimum": 2916,
      "Ġunits": 2917,
      "Ġlookup": 2918,
      "ĠIFLA": 2919,
      "Ġmodprobe": 2920,
      "printk": 2921,
      "Ġautoload": 2922,
      "RESIZEX": 2923,
      "SHED": 2924,
      "dqbuf": 2925,
      "Ġcapacity": 2926,
      "Ġtwice": 2927,
      "Ġpvrusb": 2928,
      "Ġmntget": 2929,
      "Ġbatadv": 2930,
      "Ġoffsets": 2931,
      "coming": 2932,
      "Ġconstants": 2933,
      "append": 2934,
      "ĠConvert": 2935,
      "Ġexclusive": 2936,
      "ĠInitialize": 2937,
      "Ġlong": 2938,
      "Ġregulatory": 2939,
      "Ġnexthop": 2940,
      "Ġplugins": 2941,
      "Ġparameters": 2942,
      "GROUP": 2943,
      "QUANTU": 2944,
      "QUEUE": 2945,
      "Staging": 2946,
      "broadcast": 2947,
      "evict": 2948,
      "grade": 2949,
      "join": 2950,
      "migrate": 2951,
      "margins": 2952,
      "mmediate": 2953,
      "spawn": 2954,
      "Ġracy": 2955,
      "Ġacpi": 2956,
      "Ġsingle": 2957,
      "defined": 2958,
      "Ġpurge": 2959,
      "Ġuvcvideo": 2960,
      "Ġmptcp": 2961,
      "Ġmcba": 2962,
      "anotify": 2963,
      "Ġrecovery": 2964,
      "Ġreclaim": 2965,
      "Ġduplicate": 2966,
      "Ġdynamic": 2967,
      "Ġillegal": 2968,
      "Ġvirtual": 2969,
      "Ġvideo": 2970,
      "Ġvivid": 2971,
      "Ġruntime": 2972,
      "Ġconsole": 2973,
      "Ġjournal": 2974,
      "membarrier": 2975,
      "Ġnetlbl": 2976,
      "Ġinformation": 2977,
      "Ġasynchronous": 2978,
      "ATOMIC": 2979,
      "Ġparanoia": 2980,
      "NOFAIL": 2981,
      "QUANTUM": 2982,
      "10": 2983,
      "16": 2984,
      "100": 2985,
      "20": 2986,
      "38": 2987,
      "50": 2988,
      "70": 2989,
      "819": 2990,
      "90": 2991,
      "AB": 2992,
      "BR": 2993,
      "CH": 2994,
      "CI": 2995,
      "CT": 2996,
      "CON": 2997,
      "CRE": 2998,
      "COM": 2999,
      "DG": 3000,
      "EC": 3001,
      "EE": 3002,
      "EAT": 3003,
      "EST": 3004,
      "EPROTO": 3005,
      "ERED": 3006,
      "Free": 3007,
      "FRE": 3008,
      "FEAT": 3009,
      "GS": 3010,
      "IS": 3011,
      "LE": 3012,
      "LY": 3013,
      "MO": 3014,
      "Max": 3015,
      "NU": 3016,
      "Page": 3017,
      "Packet": 3018,
      "PER": 3019,
      "RP": 3020,
      "Rx": 3021,
      "RFO": 3022,
      "RANGE": 3023,
      "RAM": 3024,
      "SP": 3025,
      "SS": 3026,
      "STR": 3027,
      "SED": 3028,
      "SENT": 3029,
      "SYN": 3030,
      "SCON": 3031,
      "TF": 3032,
      "TO": 3033,
      "TP": 3034,
      "TS": 3035,
      "TER": 3036,
      "UG": 3037,
      "VL": 3038,
      "WR": 3039,
      "ale": 3040,
      "ace": 3041,
      "aio": 3042,
      "acce": 3043,
      "aving": 3044,
      "bh": 3045,
      "bor": 3046,
      "bdev": 3047,
      "bcast": 3048,
      "break": 3049,
      "balance": 3050,
      "bvec": 3051,
      "call": 3052,
      "cls": 3053,
      "callback": 3054,
      "da": 3055,
      "dr": 3056,
      "dt": 3057,
      "dat": 3058,
      "dist": 3059,
      "done": 3060,
      "detach": 3061,
      "eo": 3062,
      "eat": 3063,
      "fil": 3064,
      "finit": 3065,
      "fib": 3066,
      "fpu": 3067,
      "fanotify": 3068,
      "go": 3069,
      "gor": 3070,
      "ged": 3071,
      "gress": 3072,
      "gas": 3073,
      "gadget": 3074,
      "hig": 3075,
      "hore": 3076,
      "hub": 3077,
      "hlocks": 3078,
      "ick": 3079,
      "ior": 3080,
      "ied": 3081,
      "ima": 3082,
      "iqueue": 3083,
      "ieve": 3084,
      "icode": 3085,
      "kl": 3086,
      "ked": 3087,
      "kcm": 3088,
      "lf": 3089,
      "ler": 3090,
      "lon": 3091,
      "lue": 3092,
      "lfb": 3093,
      "mk": 3094,
      "mad": 3095,
      "mrp": 3096,
      "mant": 3097,
      "mfd": 3098,
      "must": 3099,
      "mark": 3100,
      "madvise": 3101,
      "nh": 3102,
      "ni": 3103,
      "nr": 3104,
      "nx": 3105,
      "ner": 3106,
      "nsh": 3107,
      "oS": 3108,
      "ob": 3109,
      "ost": 3110,
      "oss": 3111,
      "osk": 3112,
      "oom": 3113,
      "pc": 3114,
      "ple": 3115,
      "pid": 3116,
      "pack": 3117,
      "pol": 3118,
      "pee": 3119,
      "pull": 3120,
      "pcpu": 3121,
      "pone": 3122,
      "place": 3123,
      "pie": 3124,
      "pmu": 3125,
      "qs": 3126,
      "qfq": 3127,
      "rb": 3128,
      "rs": 3129,
      "rdev": 3130,
      "rmap": 3131,
      "rint": 3132,
      "rans": 3133,
      "rng": 3134,
      "rink": 3135,
      "rssi": 3136,
      "sa": 3137,
      "sf": 3138,
      "son": 3139,
      "sce": 3140,
      "sack": 3141,
      "sap": 3142,
      "slu": 3143,
      "sfb": 3144,
      "source": 3145,
      "signal": 3146,
      "spec": 3147,
      "tb": 3148,
      "tg": 3149,
      "tion": 3150,
      "tim": 3151,
      "tmc": 3152,
      "tctx": 3153,
      "trap": 3154,
      "tbl": 3155,
      "uz": 3156,
      "uled": 3157,
      "uards": 3158,
      "vp": 3159,
      "ved": 3160,
      "virt": 3161,
      "vcs": 3162,
      "vgem": 3163,
      "vision": 3164,
      "wer": 3165,
      "wap": 3166,
      "want": 3167,
      "wiphy": 3168,
      "ying": 3169,
      "ynt": 3170,
      "zalloc": 3171,
      "Ġ#": 3172,
      "Ġ(": 3173,
      "Ġ/": 3174,
      "Ġ2": 3175,
      "Ġ9": 3176,
      "Ġ|": 3177,
      "Ġet": 3178,
      "Ġlet": 3179,
      "Ġld": 3180,
      "Ġ64": 3181,
      "Ġ32": 3182,
      "Ġedge": 3183,
      "inf": 3184,
      "inst": 3185,
      "invo": 3186,
      "input": 3187,
      "invalid": 3188,
      "insn": 3189,
      "incoming": 3190,
      "real": 3191,
      "regist": 3192,
      "rename": 3193,
      "report": 3194,
      "recurs": 3195,
      "restore": 3196,
      "rency": 3197,
      "Ġfd": 3198,
      "Ġfw": 3199,
      "Ġfou": 3200,
      "Ġfill": 3201,
      "Ġfont": 3202,
      "ernet": 3203,
      "eric": 3204,
      "erialize": 3205,
      "erform": 3206,
      "ety": 3207,
      "etch": 3208,
      "eturn": 3209,
      "Ġinex": 3210,
      "Ġinline": 3211,
      "Ġinsn": 3212,
      "Ġincrement": 3213,
      "Ġinner": 3214,
      "Ġali": 3215,
      "Ġamp": 3216,
      "Ġarm": 3217,
      "Ġamount": 3218,
      "Ġcc": 3219,
      "Ġcy": 3220,
      "Ġclo": 3221,
      "Ġcop": 3222,
      "Ġcir": 3223,
      "Ġclu": 3224,
      "Ġcake": 3225,
      "Ġcard": 3226,
      "Ġcipso": 3227,
      "Ġcpu": 3228,
      "Ġcards": 3229,
      "Ġcbs": 3230,
      "Ġclon": 3231,
      "Ġsan": 3232,
      "Ġsig": 3233,
      "Ġsis": 3234,
      "Ġsame": 3235,
      "Ġsoft": 3236,
      "Ġsom": 3237,
      "Ġsaf": 3238,
      "cket": 3239,
      "oring": 3240,
      "orter": 3241,
      "orbe": 3242,
      "()'": 3243,
      "()/": 3244,
      "leave": 3245,
      "dec": 3246,
      "deli": 3247,
      "descript": 3248,
      "itize": 3249,
      "itions": 3250,
      "itting": 3251,
      "ators": 3252,
      "atomic": 3253,
      "attern": 3254,
      "look": 3255,
      "Ġtrap": 3256,
      "Ġptr": 3257,
      "Ġpcan": 3258,
      "Ġpsock": 3259,
      "Ġpcrypt": 3260,
      "Ġpattern": 3261,
      "ings": 3262,
      "alcul": 3263,
      "hest": 3264,
      "netns": 3265,
      "segs": 3266,
      "session": 3267,
      "self": 3268,
      "Ġumem": 3269,
      "Ġumd": 3270,
      "Ġulp": 3271,
      "stv": 3272,
      "ster": 3273,
      "stack": 3274,
      "stics": 3275,
      "cept": 3276,
      "Ġmet": 3277,
      "Ġman": 3278,
      "Ġmed": 3279,
      "Ġmrp": 3280,
      "Ġmbind": 3281,
      "Ġmust": 3282,
      "Ġmsg": 3283,
      "Ġmcs": 3284,
      "Ġmark": 3285,
      "Ġmtype": 3286,
      "ounce": 3287,
      "ouple": 3288,
      "Ġrece": 3289,
      "Ġrela": 3290,
      "Ġredu": 3291,
      "Ġrecheck": 3292,
      "Ġresize": 3293,
      "Ġreally": 3294,
      "Ġremount": 3295,
      "Ġreiserfs": 3296,
      "Ġretrans": 3297,
      "Ġresubmit": 3298,
      "Ġrebuild": 3299,
      "Ġrequired": 3300,
      "ctor": 3301,
      "Ġbut": 3302,
      "Ġbig": 3303,
      "Ġblow": 3304,
      "Ġbvec": 3305,
      "Ġbtf": 3306,
      "Ġdp": 3307,
      "Ġds": 3308,
      "Ġdif": 3309,
      "Ġdiag": 3310,
      "Ġdying": 3311,
      "room": 3312,
      "ropp": 3313,
      "Ġwill": 3314,
      "Ġwire": 3315,
      "Ġwrap": 3316,
      "Ġwdm": 3317,
      "ĠwMax": 3318,
      "adap": 3319,
      "adow": 3320,
      "sscan": 3321,
      "rain": 3322,
      "ract": 3323,
      "Ġimb": 3324,
      "Ġimon": 3325,
      "Ġimpro": 3326,
      "Ġimmediate": 3327,
      "Ġove": 3328,
      "Ġold": 3329,
      "Ġovs": 3330,
      "Ġobject": 3331,
      "Ġnd": 3332,
      "Ġns": 3333,
      "Ġnat": 3334,
      "Ġnci": 3335,
      "Ġnsim": 3336,
      "Ġdeath": 3337,
      "Ġdepen": 3338,
      "Ġdefinit": 3339,
      "Ġhdp": 3340,
      "Ġhtb": 3341,
      "arg": 3342,
      "arch": 3343,
      "around": 3344,
      "arget": 3345,
      "arded": 3346,
      "idr": 3347,
      "ndle": 3348,
      "ndup": 3349,
      "ilfs": 3350,
      "illa": 3351,
      "Ġfork": 3352,
      "Ġformat": 3353,
      "Ġforbid": 3354,
      "uesize": 3355,
      "trieve": 3356,
      "ipsec": 3357,
      "ipmr": 3358,
      "urb": 3359,
      "urious": 3360,
      "max": 3361,
      "may": 3362,
      "ioc": 3363,
      "iol": 3364,
      "scan": 3365,
      "scpa": 3366,
      "scri": 3367,
      "Ġused": 3368,
      "exfat": 3369,
      "Ġvma": 3370,
      "Ġvfs": 3371,
      "Ġvers": 3372,
      "Ġvcs": 3373,
      "Ġvsscan": 3374,
      "fsgs": 3375,
      "ĠRD": 3376,
      "ĠRX": 3377,
      "ĠRDMA": 3378,
      "ĠReturn": 3379,
      "Ġpool": 3380,
      "gebl": 3381,
      "ntity": 3382,
      "Ġleg": 3383,
      "Ġleading": 3384,
      "Ġrc": 3385,
      "Ġroute": 3386,
      "lls": 3387,
      "llap": 3388,
      "llink": 3389,
      "Ġkstr": 3390,
      "Ġkmem": 3391,
      "Ġkasan": 3392,
      "Ġkobject": 3393,
      "Ġkthread": 3394,
      "Ġkzalloc": 3395,
      "using": 3396,
      "usage": 3397,
      "lish": 3398,
      "Ġunch": 3399,
      "Ġunpar": 3400,
      "Ġunsub": 3401,
      "Ġunlocking": 3402,
      "Ġunwind": 3403,
      "Ġunchecked": 3404,
      "Ġunregistration": 3405,
      "Ġundefined": 3406,
      "Ġmemcontrol": 3407,
      "cook": 3408,
      "color": 3409,
      "share": 3410,
      "ution": 3411,
      "uted": 3412,
      "utes": 3413,
      "utux": 3414,
      "freeze": 3415,
      "outq": 3416,
      "Ġleakage": 3417,
      "chk": 3418,
      "chor": 3419,
      "chrdev": 3420,
      "Ġgf": 3421,
      "Ġgro": 3422,
      "Ġgive": 3423,
      "Ġguard": 3424,
      "Ġglue": 3425,
      "Ġguards": 3426,
      "Ġgscpa": 3427,
      "unk": 3428,
      "unlink": 3429,
      "unhash": 3430,
      "unwind": 3431,
      "setsockopt": 3432,
      "initialized": 3433,
      "Ġfasync": 3434,
      "lapp": 3435,
      "Ġalgor": 3436,
      "iget": 3437,
      "igmp": 3438,
      "Ġsockhash": 3439,
      "Ġsockaddr": 3440,
      "Ġdevm": 3441,
      "ifindex": 3442,
      "iface": 3443,
      "mapped": 3444,
      "mapping": 3445,
      "ism": 3446,
      "isotp": 3447,
      "mode": 3448,
      "refcnt": 3449,
      "ĠAPI": 3450,
      "Ġcover": 3451,
      "Ġcollap": 3452,
      "Ġcond": 3453,
      "Ġconsistent": 3454,
      "amrad": 3455,
      "Ġcallers": 3456,
      "SALLOC": 3457,
      "ptrace": 3458,
      "Ġany": 3459,
      "Ġanchor": 3460,
      "schedule": 3461,
      "ĠNe": 3462,
      "ĠNull": 3463,
      "ĠNET": 3464,
      "ĠNLA": 3465,
      "usbnet": 3466,
      "istics": 3467,
      "Ġstub": 3468,
      "Ġatusb": 3469,
      "bust": 3470,
      "getname": 3471,
      "getsockopt": 3472,
      "Ġenter": 3473,
      "icious": 3474,
      "Ġnotifi": 3475,
      "ĠReuse": 3476,
      "ĠReport": 3477,
      "ĠRework": 3478,
      "cond": 3479,
      "conntrack": 3480,
      "Ġqfq": 3481,
      "perly": 3482,
      "Ġeval": 3483,
      "Ġecache": 3484,
      "ĠPF": 3485,
      "ĠPerform": 3486,
      "Ġusbfs": 3487,
      "Ġusblp": 3488,
      "Ġusbtouch": 3489,
      "prot": 3490,
      "protect": 3491,
      "vmx": 3492,
      "vmci": 3493,
      "vmcs": 3494,
      "ĠSG": 3495,
      "ĠSanity": 3496,
      "ĠSwitch": 3497,
      "ĠSave": 3498,
      "ĠSIOC": 3499,
      "ĠSRCU": 3500,
      "ĠSerialize": 3501,
      "Ġbucket": 3502,
      "Ġbundle": 3503,
      "Ġcausing": 3504,
      "Ġstrset": 3505,
      "umem": 3506,
      "ĠDirect": 3507,
      "ĠDisable": 3508,
      "Ġdoing": 3509,
      "blockdev": 3510,
      "htb": 3511,
      "interface": 3512,
      "Ġsetsockopt": 3513,
      "ĠCAN": 3514,
      "ĠCorrect": 3515,
      "ĠCLO": 3516,
      "ĠCDC": 3517,
      "queues": 3518,
      "was": 3519,
      "erofs": 3520,
      "Ġdone": 3521,
      "Ġdatalen": 3522,
      "Ġjmp": 3523,
      "Ġallocated": 3524,
      "INET": 3525,
      "INLINE": 3526,
      "INTER": 3527,
      "zerocopy": 3528,
      "Ġlogic": 3529,
      "MAP": 3530,
      "MAX": 3531,
      "nldev": 3532,
      "macsec": 3533,
      "ered": 3534,
      "putpeer": 3535,
      "Ġrefuse": 3536,
      "Ġrefact": 3537,
      "Ġnetdevice": 3538,
      "ressors": 3539,
      "DELI": 3540,
      "DEBUG": 3541,
      "namespace": 3542,
      "buffer": 3543,
      "Ġshmem": 3544,
      "Ġshkey": 3545,
      "Ġshmlock": 3546,
      "Ġshould": 3547,
      "Ġshutdown": 3548,
      "Ġshadow": 3549,
      "Ġpaths": 3550,
      "erspan": 3551,
      "cmd": 3552,
      "rxe": 3553,
      "Ġmay": 3554,
      "Ġnever": 3555,
      "Ġnecess": 3556,
      "ints": 3557,
      "Ġsecond": 3558,
      "Ġupper": 3559,
      "Ġannotations": 3560,
      "sockfd": 3561,
      "Ġnfnetlink": 3562,
      "Ġpossib": 3563,
      "gso": 3564,
      "Ġasoc": 3565,
      "Ġscsi": 3566,
      "fast": 3567,
      "ports": 3568,
      "ĠTrans": 3569,
      "Ġlistified": 3570,
      "Ġmapping": 3571,
      "created": 3572,
      "parm": 3573,
      "Ġtrc": 3574,
      "Ġtrim": 3575,
      "IDI": 3576,
      "IDIOC": 3577,
      "Ġitem": 3578,
      "Ġnonblocking": 3579,
      "Ġscheduled": 3580,
      "ibutes": 3581,
      "ĠGPF": 3582,
      "ĠGSO": 3583,
      "ĠMove": 3584,
      "ĠMMU": 3585,
      "ĠMPT": 3586,
      "ĠMIDI": 3587,
      "Ġpassing": 3588,
      "types": 3589,
      "Ġsizes": 3590,
      "Ġrcuidle": 3591,
      "Ġgetting": 3592,
      "Ġcleanups": 3593,
      "Ġinterval": 3594,
      "Ġfailures": 3595,
      "Ġbetter": 3596,
      "Ġbetop": 3597,
      "irqson": 3598,
      "doi": 3599,
      "ĠOpen": 3600,
      "ĠODEBUG": 3601,
      "leaks": 3602,
      "Ġpremat": 3603,
      "Ġretake": 3604,
      "Ġoverwrite": 3605,
      "Ġoverlapp": 3606,
      "query": 3607,
      "sprint": 3608,
      "server": 3609,
      "service": 3610,
      "Ġdisallow": 3611,
      "Ġdismant": 3612,
      "ĠEX": 3613,
      "ĠEST": 3614,
      "ĠEGA": 3615,
      "attrs": 3616,
      "Ġallowed": 3617,
      "ĠDont": 3618,
      "Ġreturns": 3619,
      "Ġreturned": 3620,
      "Ġwrites": 3621,
      "Ġpolicydb": 3622,
      "Ġgenhd": 3623,
      "asix": 3624,
      "ches": 3625,
      "filemap": 3626,
      "oke": 3627,
      "siw": 3628,
      "ssed": 3629,
      "ĠBreak": 3630,
      "ĠBIO": 3631,
      "ĠBTF": 3632,
      "ĠBUG": 3633,
      "Ġteam": 3634,
      "Ġteardown": 3635,
      "Ġdisk": 3636,
      "Ġupdating": 3637,
      "Ġqueues": 3638,
      "Ġqueueing": 3639,
      "Ġadv": 3640,
      "Ġadutux": 3641,
      "Ġspurious": 3642,
      "Ġcases": 3643,
      "waitq": 3644,
      "ront": 3645,
      "dereference": 3646,
      "identity": 3647,
      "keycode": 3648,
      "Ġassump": 3649,
      "ROY": 3650,
      "Ġfsync": 3651,
      "Ġcreated": 3652,
      "Ġcounting": 3653,
      "hwrng": 3654,
      "minor": 3655,
      "ĠVGA": 3656,
      "ĠVIDIOC": 3657,
      "Ġblkdev": 3658,
      "Ġstatus": 3659,
      "Ġstatistics": 3660,
      "Ġclearing": 3661,
      "Ġclearance": 3662,
      "Ġcanceling": 3663,
      "ĠIPV": 3664,
      "ĠIPv": 3665,
      "rcvbuf": 3666,
      "Ġgenerated": 3667,
      "Ġinodes": 3668,
      "Ġtabledist": 3669,
      "Ġrestart": 3670,
      "Ġboundary": 3671,
      "Ġconnection": 3672,
      "Ġconnections": 3673,
      "Ġqdiscs": 3674,
      "Ġelevator": 3675,
      "Ġchanges": 3676,
      "Ġopening": 3677,
      "NORM": 3678,
      "NOWA": 3679,
      "ecute": 3680,
      "ĠVMA": 3681,
      "Ġdebugging": 3682,
      "subclass": 3683,
      "Ġrobust": 3684,
      "Ġtypes": 3685,
      "Ġmodel": 3686,
      "Ġicsk": 3687,
      "Ġiclog": 3688,
      "Ġvmx": 3689,
      "cular": 3690,
      "fqs": 3691,
      "fixed": 3692,
      "ttyprintk": 3693,
      "Ġintel": 3694,
      "Ġacquir": 3695,
      "Ġserialize": 3696,
      "Ġservice": 3697,
      "Ġsilently": 3698,
      "Ġreferences": 3699,
      "Ġcorrupted": 3700,
      "LINK": 3701,
      "direct": 3702,
      "gerable": 3703,
      "mono": 3704,
      "ogitech": 3705,
      "sqo": 3706,
      "Ġlayers": 3707,
      "Ġsublist": 3708,
      "Ġsubflow": 3709,
      "Ġsubmission": 3710,
      "Ġtracking": 3711,
      "Ġpeers": 3712,
      "Ġpegas": 3713,
      "status": 3714,
      "ĠREQ": 3715,
      "bits": 3716,
      "bitmap": 3717,
      "keys": 3718,
      "nostics": 3719,
      "phic": 3720,
      "ĠLimit": 3721,
      "ĠLogitech": 3722,
      "Ġresult": 3723,
      "enabled": 3724,
      "Ġidr": 3725,
      "Ġrxe": 3726,
      "ĠAlways": 3727,
      "Ġxts": 3728,
      "Ġmaxpacket": 3729,
      "CMD": 3730,
      "area": 3731,
      "nft": 3732,
      "paths": 3733,
      "pathtbl": 3734,
      "Ġfragment": 3735,
      "Ġprism": 3736,
      "cells": 3737,
      "Ġreporter": 3738,
      "Ġdrivers": 3739,
      "Ġdeferred": 3740,
      "Ġvarious": 3741,
      "Ġkilling": 3742,
      "Ġaccepted": 3743,
      "Ġtagset": 3744,
      "Ġsplitting": 3745,
      "Ġcalculate": 3746,
      "BUFS": 3747,
      "DISCON": 3748,
      "DISALLOC": 3749,
      "partial": 3750,
      "partition": 3751,
      "Ġ16": 3752,
      "Ġlack": 3753,
      "Ġlapic": 3754,
      "Ġactive": 3755,
      "Ġauth": 3756,
      "Ġslip": 3757,
      "Ġslcan": 3758,
      "Ġtaking": 3759,
      "Ġmisuse": 3760,
      "Ġmismatch": 3761,
      "Ġimplementations": 3762,
      "Ġconcurrency": 3763,
      "Ġstartup": 3764,
      "ĠProperly": 3765,
      "Ġcaches": 3766,
      "Ġneighbor": 3767,
      "ĠExecute": 3768,
      "LIST": 3769,
      "LISHED": 3770,
      "hdr": 3771,
      "hdlc": 3772,
      "handler": 3773,
      "Ġlike": 3774,
      "Ġinsertion": 3775,
      "Ġsmall": 3776,
      "Ġttusb": 3777,
      "edgeport": 3778,
      "Ġhuge": 3779,
      "Ġcarefully": 3780,
      "Ġcleanly": 3781,
      "Ġtrigger": 3782,
      "Ġmethod": 3783,
      "720": 3784,
      "NEW": 3785,
      "NECT": 3786,
      "cipsov": 3787,
      "frags": 3788,
      "generic": 3789,
      "sband": 3790,
      "tcindex": 3791,
      "tek": 3792,
      "team": 3793,
      "ĠQoS": 3794,
      "removal": 3795,
      "ctrl": 3796,
      "ctrls": 3797,
      "Ġbased": 3798,
      "Ġbreakage": 3799,
      "Ġdestruction": 3800,
      "Ġleaves": 3801,
      "Ġunitialized": 3802,
      "VMXE": 3803,
      "ĠSCSI": 3804,
      "ĠSCTP": 3805,
      "ĠIFF": 3806,
      "Ġiterators": 3807,
      "ADDRFO": 3808,
      "Ġaccounting": 3809,
      "ENTERED": 3810,
      "RESIZE": 3811,
      "avail": 3812,
      "avior": 3813,
      "dirty": 3814,
      "mtd": 3815,
      "nfsd": 3816,
      "owner": 3817,
      "Ġtimers": 3818,
      "Ġtermination": 3819,
      "Ġprefix": 3820,
      "Ġprefetch": 3821,
      "aligned": 3822,
      "alignment": 3823,
      "Ġmonitor": 3824,
      "Ġmatching": 3825,
      "Ġwakeup": 3826,
      "Ġdescriptor": 3827,
      "Ġdescriptors": 3828,
      "Ġhyperv": 3829,
      "executed": 3830,
      "Ġradix": 3831,
      "Ġradio": 3832,
      "common": 3833,
      "Ġgrab": 3834,
      "Ġgraphic": 3835,
      "ĠAssure": 3836,
      "ĠAssign": 3837,
      "Ġconfiguration": 3838,
      "Ġbehave": 3839,
      "Ġbehavior": 3840,
      "ĠCover": 3841,
      "ĠClear": 3842,
      "ĠCleanup": 3843,
      "Ġneeds": 3844,
      "ĠIDR": 3845,
      "failure": 3846,
      "Ġchaosk": 3847,
      "Ġcharact": 3848,
      "Ġchannel": 3849,
      "Ġchanging": 3850,
      "Ġprecision": 3851,
      "Ġprecalcul": 3852,
      "Ġassertion": 3853,
      "Ġigmpv": 3854,
      "Ġsuccessful": 3855,
      "Ġsuccessfully": 3856,
      "Ġlivelocks": 3857,
      "CLOSED": 3858,
      "IPv": 3859,
      "elem": 3860,
      "ferent": 3861,
      "flexcop": 3862,
      "meta": 3863,
      "walker": 3864,
      "ĠJIT": 3865,
      "reserve": 3866,
      "Ġfatal": 3867,
      "Ġclasses": 3868,
      "Ġslots": 3869,
      "Ġspecific": 3870,
      "Ġtraversal": 3871,
      "Ġtaprio": 3872,
      "Ġpanic": 3873,
      "Ġpublic": 3874,
      "stimation": 3875,
      "Ġmalicious": 3876,
      "Ġrepair": 3877,
      "Ġdiscarded": 3878,
      "Ġwqe": 3879,
      "ĠForbid": 3880,
      "Ġowner": 3881,
      "Ġdecompressors": 3882,
      "triggerable": 3883,
      "Ġpolicies": 3884,
      "Ġkasprint": 3885,
      "chardev": 3886,
      "ĠAccess": 3887,
      "Ġlogitech": 3888,
      "Ġexpression": 3889,
      "Ġsegfault": 3890,
      "TRACE": 3891,
      "Ġprinting": 3892,
      "Ġmultiple": 3893,
      "8192": 3894,
      "ABLISHED": 3895,
      "BRADD": 3896,
      "CHANGE": 3897,
      "CREATE": 3898,
      "COMP": 3899,
      "DGRAM": 3900,
      "FREE": 3901,
      "PacketSize": 3902,
      "SYNC": 3903,
      "eod": 3904,
      "eature": 3905,
      "highest": 3906,
      "nxt": 3907,
      "peek": 3908,
      "slub": 3909,
      "special": 3910,
      "timers": 3911,
      "uzz": 3912,
      "ynth": 3913,
      "Ġetf": 3914,
      "Ġldusb": 3915,
      "invoke": 3916,
      "Ġinexact": 3917,
      "Ġalien": 3918,
      "Ġclosing": 3919,
      "Ġcopies": 3920,
      "Ġcircular": 3921,
      "Ġsisusb": 3922,
      "Ġsome": 3923,
      "Ġsafety": 3924,
      "deliver": 3925,
      "lookup": 3926,
      "Ġmedia": 3927,
      "Ġrelax": 3928,
      "Ġreducing": 3929,
      "Ġresizes": 3930,
      "Ġremounting": 3931,
      "Ġresubmitting": 3932,
      "Ġblown": 3933,
      "Ġdifferent": 3934,
      "Ġdiagnostics": 3935,
      "ropped": 3936,
      "Ġwireless": 3937,
      "Ġwrapper": 3938,
      "ĠwMaxPacketSize": 3939,
      "adapter": 3940,
      "Ġimbalance": 3941,
      "Ġimproper": 3942,
      "Ġdefinition": 3943,
      "Ġhdpvr": 3944,
      "illable": 3945,
      "scribe": 3946,
      "Ġversion": 3947,
      "Ġvsscanf": 3948,
      "fsgsbase": 3949,
      "geblit": 3950,
      "Ġkstrndup": 3951,
      "Ġkmemleak": 3952,
      "Ġuncharge": 3953,
      "Ġunsubscribe": 3954,
      "Ġalgorith": 3955,
      "amradio": 3956,
      "ĠNETDEV": 3957,
      "Ġnotifier": 3958,
      "ĠReportSize": 3959,
      "Ġevalu": 3960,
      "Ġusbtouchscreen": 3961,
      "ĠSIOCBRADD": 3962,
      "ĠCorrectly": 3963,
      "ĠCLOSE": 3964,
      "Ġrefactoring": 3965,
      "DELIF": 3966,
      "Ġnecessary": 3967,
      "Ġpossibly": 3968,
      "ĠMPTCP": 3969,
      "Ġpremature": 3970,
      "Ġoverlapping": 3971,
      "Ġdismantle": 3972,
      "ĠESTABLISHED": 3973,
      "Ġassumption": 3974,
      "NORMAL": 3975,
      "NOWAIT": 3976,
      "Ġacquiring": 3977,
      "Ġpegasus": 3978,
      "DISCONNECT": 3979,
      "DISALLOCATE": 3980,
      "ADDRFORM": 3981,
      "Ġchaoskey": 3982,
      "Ġprecalculate": 3983,
      "Ġkasprintf": 3984,
      "\"\"": 3985,
      "'ve": 3986,
      "(!": 3987,
      ")->": 3988,
      "02": 3989,
      "08": 3990,
      "14": 3991,
      "178": 3992,
      "24": 3993,
      "200": 3994,
      "30": 3995,
      "33": 3996,
      "35": 3997,
      "45": 3998,
      "470": 3999,
      "52": 4000,
      "59": 4001,
      "5100": 4002,
      "533": 4003,
      "681": 4004,
      "650": 4005,
      "602": 4006,
      "75": 4007,
      "79": 4008,
      "700": 4009,
      "91": 4010,
      "980": 4011,
      "900": 4012,
      "906": 4013,
      "AP": 4014,
      "AS": 4015,
      "AX": 4016,
      "Ab": 4017,
      "API": 4018,
      "ASE": 4019,
      "BA": 4020,
      "BD": 4021,
      "BQ": 4022,
      "BAL": 4023,
      "BLOCK": 4024,
      "BIND": 4025,
      "BLE": 4026,
      "BBA": 4027,
      "CK": 4028,
      "CN": 4029,
      "CO": 4030,
      "CING": 4031,
      "CDC": 4032,
      "CVE": 4033,
      "CBQ": 4034,
      "DB": 4035,
      "DN": 4036,
      "DON": 4037,
      "DAT": 4038,
      "DING": 4039,
      "DYN": 4040,
      "EB": 4041,
      "EM": 4042,
      "EW": 4043,
      "EY": 4044,
      "EIN": 4045,
      "EMA": 4046,
      "EAD": 4047,
      "EMU": 4048,
      "EPER": 4049,
      "FI": 4050,
      "FR": 4051,
      "FT": 4052,
      "FER": 4053,
      "FEN": 4054,
      "Fence": 4055,
      "FTRACE": 4056,
      "GL": 4057,
      "GRE": 4058,
      "GET": 4059,
      "GIC": 4060,
      "GATE": 4061,
      "GINFO": 4062,
      "HO": 4063,
      "HR": 4064,
      "HER": 4065,
      "HCP": 4066,
      "HTO": 4067,
      "IX": 4068,
      "ILL": 4069,
      "IAL": 4070,
      "IMA": 4071,
      "ICE": 4072,
      "IVE": 4073,
      "IBLE": 4074,
      "JFS": 4075,
      "KS": 4076,
      "KOB": 4077,
      "KEY": 4078,
      "KILL": 4079,
      "LB": 4080,
      "LD": 4081,
      "LP": 4082,
      "LS": 4083,
      "LOC": 4084,
      "LAT": 4085,
      "LET": 4086,
      "MM": 4087,
      "Make": 4088,
      "MSAN": 4089,
      "MTU": 4090,
      "MEMA": 4091,
      "MHO": 4092,
      "NG": 4093,
      "NCM": 4094,
      "NENT": 4095,
      "NMAP": 4096,
      "NIX": 4097,
      "OI": 4098,
      "OW": 4099,
      "OLL": 4100,
      "OKS": 4101,
      "PU": 4102,
      "PAL": 4103,
      "PRE": 4104,
      "PEN": 4105,
      "PEE": 4106,
      "PLY": 4107,
      "RC": 4108,
      "RH": 4109,
      "RUN": 4110,
      "RUP": 4111,
      "RATE": 4112,
      "SD": 4113,
      "SG": 4114,
      "SV": 4115,
      "SUN": 4116,
      "TA": 4117,
      "TY": 4118,
      "TPO": 4119,
      "Tail": 4120,
      "THTO": 4121,
      "TIBLE": 4122,
      "Use": 4123,
      "UAR": 4124,
      "Uprobe": 4125,
      "URB": 4126,
      "UBSAN": 4127,
      "ULP": 4128,
      "VS": 4129,
      "VID": 4130,
      "VER": 4131,
      "Write": 4132,
      "Ya": 4133,
      "YED": 4134,
      "[]": 4135,
      "]:": 4136,
      "_*": 4137,
      "_]": 4138,
      "aset": 4139,
      "air": 4140,
      "acm": 4141,
      "aes": 4142,
      "aded": 4143,
      "aead": 4144,
      "ager": 4145,
      "aild": 4146,
      "aux": 4147,
      "acom": 4148,
      "ahead": 4149,
      "bc": 4150,
      "bo": 4151,
      "bp": 4152,
      "bing": 4153,
      "bed": 4154,
      "bot": 4155,
      "bers": 4156,
      "bto": 4157,
      "bour": 4158,
      "blob": 4159,
      "btab": 4160,
      "bprint": 4161,
      "btf": 4162,
      "bos": 4163,
      "binf": 4164,
      "bounce": 4165,
      "blish": 4166,
      "cc": 4167,
      "cd": 4168,
      "cq": 4169,
      "cr": 4170,
      "cat": 4171,
      "cal": 4172,
      "cip": 4173,
      "csk": 4174,
      "ccp": 4175,
      "cmap": 4176,
      "cake": 4177,
      "clic": 4178,
      "clk": 4179,
      "catch": 4180,
      "cdc": 4181,
      "clr": 4182,
      "clude": 4183,
      "crtc": 4184,
      "couple": 4185,
      "df": 4186,
      "dl": 4187,
      "dn": 4188,
      "dis": 4189,
      "dpa": 4190,
      "dyn": 4191,
      "dattr": 4192,
      "draw": 4193,
      "drop": 4194,
      "dvb": 4195,
      "drain": 4196,
      "dropped": 4197,
      "ek": 4198,
      "ew": 4199,
      "eval": 4200,
      "efi": 4201,
      "estim": 4202,
      "egress": 4203,
      "fe": 4204,
      "ff": 4205,
      "ft": 4206,
      "fw": 4207,
      "flo": 4208,
      "fro": 4209,
      "ffs": 4210,
      "from": 4211,
      "flu": 4212,
      "full": 4213,
      "fput": 4214,
      "futex": 4215,
      "fallback": 4216,
      "fled": 4217,
      "fload": 4218,
      "fcs": 4219,
      "fies": 4220,
      "func": 4221,
      "freq": 4222,
      "fcomm": 4223,
      "font": 4224,
      "fence": 4225,
      "front": 4226,
      "feature": 4227,
      "fuzz": 4228,
      "gy": 4229,
      "glock": 4230,
      "gue": 4231,
      "gpt": 4232,
      "gpa": 4233,
      "ght": 4234,
      "grp": 4235,
      "gto": 4236,
      "gend": 4237,
      "gnore": 4238,
      "global": 4239,
      "gmt": 4240,
      "garp": 4241,
      "hv": 4242,
      "hfs": 4243,
      "hmac": 4244,
      "hys": 4245,
      "hange": 4246,
      "hard": 4247,
      "hamradio": 4248,
      "iss": 4249,
      "iot": 4250,
      "isk": 4251,
      "ich": 4252,
      "icp": 4253,
      "ique": 4254,
      "iel": 4255,
      "iantum": 4256,
      "implement": 4257,
      "implify": 4258,
      "jor": 4259,
      "jfs": 4260,
      "jif": 4261,
      "jffs": 4262,
      "ker": 4263,
      "kref": 4264,
      "kee": 4265,
      "kprobe": 4266,
      "keep": 4267,
      "kcs": 4268,
      "ktime": 4269,
      "kno": 4270,
      "kdir": 4271,
      "kbuild": 4272,
      "kfence": 4273,
      "lm": 4274,
      "ln": 4275,
      "lt": 4276,
      "lit": 4277,
      "lci": 4278,
      "lone": 4279,
      "lstats": 4280,
      "ml": 4281,
      "mer": 4282,
      "mss": 4283,
      "mma": 4284,
      "mnt": 4285,
      "make": 4286,
      "mld": 4287,
      "mrelease": 4288,
      "mixer": 4289,
      "mwifi": 4290,
      "ny": 4291,
      "nss": 4292,
      "ned": 4293,
      "ndev": 4294,
      "nis": 4295,
      "nof": 4296,
      "nee": 4297,
      "num": 4298,
      "nsure": 4299,
      "ncm": 4300,
      "ncing": 4301,
      "napi": 4302,
      "nby": 4303,
      "norm": 4304,
      "nvd": 4305,
      "nilfs": 4306,
      "ole": 4307,
      "oot": 4308,
      "omp": 4309,
      "over": 4310,
      "obind": 4311,
      "ocb": 4312,
      "oost": 4313,
      "pb": 4314,
      "pq": 4315,
      "pet": 4316,
      "pnet": 4317,
      "pse": 4318,
      "pio": 4319,
      "pver": 4320,
      "ply": 4321,
      "pref": 4322,
      "plu": 4323,
      "pul": 4324,
      "pcm": 4325,
      "pri": 4326,
      "psock": 4327,
      "play": 4328,
      "prec": 4329,
      "plan": 4330,
      "pstore": 4331,
      "prior": 4332,
      "porbe": 4333,
      "qdisc": 4334,
      "qmi": 4335,
      "rf": 4336,
      "rh": 4337,
      "rr": 4338,
      "rit": 4339,
      "risc": 4340,
      "rvl": 4341,
      "range": 4342,
      "rdt": 4343,
      "sz": 4344,
      "sin": 4345,
      "six": 4346,
      "san": 4347,
      "smp": 4348,
      "sun": 4349,
      "sive": 4350,
      "sys": 4351,
      "sanity": 4352,
      "switch": 4353,
      "sign": 4354,
      "sigh": 4355,
      "system": 4356,
      "sme": 4357,
      "smk": 4358,
      "svp": 4359,
      "sbitmap": 4360,
      "synth": 4361,
      "tt": 4362,
      "tv": 4363,
      "tot": 4364,
      "tmp": 4365,
      "tout": 4366,
      "ture": 4367,
      "tset": 4368,
      "tfilter": 4369,
      "text": 4370,
      "tmem": 4371,
      "tempt": 4372,
      "turn": 4373,
      "tend": 4374,
      "tick": 4375,
      "target": 4376,
      "ui": 4377,
      "uce": 4378,
      "uan": 4379,
      "uss": 4380,
      "ula": 4381,
      "uvc": 4382,
      "vx": 4383,
      "var": 4384,
      "vid": 4385,
      "vma": 4386,
      "vable": 4387,
      "vaddr": 4388,
      "vail": 4389,
      "vga": 4390,
      "wb": 4391,
      "wm": 4392,
      "ww": 4393,
      "win": 4394,
      "whe": 4395,
      "wma": 4396,
      "wfree": 4397,
      "ward": 4398,
      "wmi": 4399,
      "xl": 4400,
      "xstats": 4401,
      "xpan": 4402,
      "xattrs": 4403,
      "yle": 4404,
      "ysc": 4405,
      "zd": 4406,
      "zr": 4407,
      "zen": 4408,
      "zable": 4409,
      "}_": 4410,
      "Ġ!": 4411,
      "Ġ+": 4412,
      "Ġ.": 4413,
      "Ġ6": 4414,
      "Ġ<": 4415,
      "Ġ@": 4416,
      "Ġ_": 4417,
      "Ġion": 4418,
      "Ġent": 4419,
      "Ġloc": 4420,
      "ĠOC": 4421,
      "Ġ86": 4422,
      "Ġram": 4423,
      "Ġracing": 4424,
      "Ġrap": 4425,
      "Ġqueued": 4426,
      "Ġldisc": 4427,
      "Ġlabel": 4428,
      "iner": 4429,
      "inal": 4430,
      "ined": 4431,
      "inue": 4432,
      "ination": 4433,
      "inel": 4434,
      "instr": 4435,
      "inval": 4436,
      "insp": 4437,
      "invalidate": 4438,
      "include": 4439,
      "reg": 4440,
      "resh": 4441,
      "rever": 4442,
      "resched": 4443,
      "reuse": 4444,
      "realloc": 4445,
      "revert": 4446,
      "resp": 4447,
      "resses": 4448,
      "remount": 4449,
      "reduce": 4450,
      "reconfig": 4451,
      "relabel": 4452,
      "required": 4453,
      "rebalance": 4454,
      "replace": 4455,
      "retrieve": 4456,
      "remono": 4457,
      "restimation": 4458,
      "readed": 4459,
      "reimplement": 4460,
      "reply": 4461,
      "return": 4462,
      "Ġff": 4463,
      "Ġfl": 4464,
      "Ġfan": 4465,
      "Ġfsc": 4466,
      "Ġfound": 4467,
      "Ġfget": 4468,
      "Ġfind": 4469,
      "Ġfool": 4470,
      "Ġfops": 4471,
      "Ġfpu": 4472,
      "Ġfdb": 4473,
      "Ġfanotify": 4474,
      "Ġfront": 4475,
      "Ġfeature": 4476,
      "Ġfuzz": 4477,
      "Ġfew": 4478,
      "ern": 4479,
      "etic": 4480,
      "ethh": 4481,
      "Ġinj": 4482,
      "Ġinject": 4483,
      "Ġinstr": 4484,
      "Ġinstruct": 4485,
      "Ġinact": 4486,
      "Ġincrease": 4487,
      "Ġincomplete": 4488,
      "Ġincoming": 4489,
      "Ġaa": 4490,
      "Ġau": 4491,
      "Ġaz": 4492,
      "Ġack": 4493,
      "Ġatr": 4494,
      "Ġafs": 4495,
      "Ġabu": 4496,
      "Ġawa": 4497,
      "Ġaes": 4498,
      "Ġapic": 4499,
      "Ġaware": 4500,
      "Ġavail": 4501,
      "ony": 4502,
      "onet": 4503,
      "onor": 4504,
      "onal": 4505,
      "onic": 4506,
      "Ġcm": 4507,
      "Ġclock": 4508,
      "Ġcmp": 4509,
      "Ġcred": 4510,
      "Ġcops": 4511,
      "Ġcapi": 4512,
      "Ġcrtc": 4513,
      "Ġclc": 4514,
      "Ġcouple": 4515,
      "Ġciner": 4516,
      "Ġsr": 4517,
      "Ġsle": 4518,
      "Ġsen": 4519,
      "Ġsid": 4520,
      "Ġsem": 4521,
      "Ġsent": 4522,
      "Ġsnt": 4523,
      "Ġsmp": 4524,
      "Ġsun": 4525,
      "Ġsla": 4526,
      "Ġsms": 4527,
      "Ġspar": 4528,
      "Ġspe": 4529,
      "Ġsoftirq": 4530,
      "Ġsmack": 4531,
      "Ġsized": 4532,
      "Ġsalg": 4533,
      "Ġsafe": 4534,
      "Ġsaving": 4535,
      "Ġswap": 4536,
      "Ġsony": 4537,
      "ckets": 4538,
      "orc": 4539,
      "orce": 4540,
      "ords": 4541,
      "ories": 4542,
      "orary": 4543,
      "ormat": 4544,
      "lel": 4545,
      "lear": 4546,
      "lectr": 4547,
      "leading": 4548,
      "lector": 4549,
      "desc": 4550,
      "deinit": 4551,
      "default": 4552,
      "deallocate": 4553,
      "dentry": 4554,
      "decrement": 4555,
      "dency": 4556,
      "deregistration": 4557,
      "desce": 4558,
      "dellink": 4559,
      "itv": 4560,
      "itter": 4561,
      "aten": 4562,
      "atta": 4563,
      "atches": 4564,
      "lover": 4565,
      "loader": 4566,
      "loom": 4567,
      "Ġtk": 4568,
      "Ġtsk": 4569,
      "Ġthen": 4570,
      "Ġtinfo": 4571,
      "Ġtso": 4572,
      "Ġtight": 4573,
      "Ġtdp": 4574,
      "Ġtfile": 4575,
      "Ġtpacket": 4576,
      "Ġtone": 4577,
      "Ġtvlv": 4578,
      "Ġtemp": 4579,
      "Ġtemplate": 4580,
      "Ġtick": 4581,
      "Ġtarget": 4582,
      "Ġtioc": 4583,
      "Ġticp": 4584,
      "Ġpd": 4585,
      "Ġpf": 4586,
      "Ġpg": 4587,
      "Ġpn": 4588,
      "Ġpll": 4589,
      "Ġpul": 4590,
      "Ġpress": 4591,
      "Ġpers": 4592,
      "Ġplus": 4593,
      "Ġpkey": 4594,
      "Ġpmd": 4595,
      "Ġptrace": 4596,
      "Ġpvc": 4597,
      "Ġphy": 4598,
      "Ġpstore": 4599,
      "Ġprior": 4600,
      "Ġphys": 4601,
      "alb": 4602,
      "aler": 4603,
      "alig": 4604,
      "alist": 4605,
      "alive": 4606,
      "alth": 4607,
      "alized": 4608,
      "allel": 4609,
      "held": 4610,
      "sed": 4611,
      "seg": 4612,
      "semap": 4613,
      "secur": 4614,
      "secre": 4615,
      "section": 4616,
      "segment": 4617,
      "selection": 4618,
      "sector": 4619,
      "seek": 4620,
      "Ġuss": 4621,
      "Ġuprobe": 4622,
      "Ġucma": 4623,
      "Ġudma": 4624,
      "Ġumount": 4625,
      "Ġuevent": 4626,
      "Ġuie": 4627,
      "Ġuring": 4628,
      "Ġumad": 4629,
      "Ġurb": 4630,
      "Ġudf": 4631,
      "std": 4632,
      "ste": 4633,
      "sti": 4634,
      "sts": 4635,
      "stor": 4636,
      "sting": 4637,
      "stand": 4638,
      "sters": 4639,
      "stpone": 4640,
      "style": 4641,
      "stined": 4642,
      "cestr": 4643,
      "ceadd": 4644,
      "cessed": 4645,
      "Ġmc": 4646,
      "Ġml": 4647,
      "Ġmmp": 4648,
      "Ġmig": 4649,
      "Ġmic": 4650,
      "Ġmld": 4651,
      "Ġmpp": 4652,
      "Ġmsi": 4653,
      "Ġmpi": 4654,
      "Ġmmu": 4655,
      "Ġmadvise": 4656,
      "Ġmpol": 4657,
      "Ġmft": 4658,
      "Ġmgmt": 4659,
      "Ġmkdir": 4660,
      "Ġmula": 4661,
      "Ġmxl": 4662,
      "Ġmatches": 4663,
      "any": 4664,
      "anon": 4665,
      "anch": 4666,
      "Ġregist": 4667,
      "Ġrealloc": 4668,
      "Ġrecur": 4669,
      "Ġretry": 4670,
      "Ġrebind": 4671,
      "Ġremote": 4672,
      "Ġreduce": 4673,
      "Ġrequire": 4674,
      "Ġreexpand": 4675,
      "Ġreversal": 4676,
      "Ġreconfig": 4677,
      "Ġretrieve": 4678,
      "Ġreschedule": 4679,
      "ctinfo": 4680,
      "Ġbh": 4681,
      "Ġbot": 4682,
      "Ġband": 4683,
      "Ġboth": 4684,
      "Ġbool": 4685,
      "Ġbsg": 4686,
      "Ġbonding": 4687,
      "Ġbdi": 4688,
      "Ġblocking": 4689,
      "Ġbail": 4690,
      "Ġbounce": 4691,
      "Ġboost": 4692,
      "Ġbpq": 4693,
      "Ġbloom": 4694,
      "ener": 4695,
      "enqueue": 4696,
      "ends": 4697,
      "encrypt": 4698,
      "enale": 4699,
      "ensive": 4700,
      "Ġda": 4701,
      "Ġdate": 4702,
      "Ġdio": 4703,
      "Ġdock": 4704,
      "Ġdig": 4705,
      "Ġdir": 4706,
      "Ġdbe": 4707,
      "Ġdax": 4708,
      "Ġdvd": 4709,
      "Ġdetach": 4710,
      "Ġdlfb": 4711,
      "Ġdrb": 4712,
      "Ġdrain": 4713,
      "Ġdropped": 4714,
      "Ġdccp": 4715,
      "Ġdln": 4716,
      "Ġdtv": 4717,
      "root": 4718,
      "roll": 4719,
      "robe": 4720,
      "rollback": 4721,
      "rotek": 4722,
      "Ġwid": 4723,
      "Ġwind": 4724,
      "Ġwatch": 4725,
      "Ġwrt": 4726,
      "Ġwas": 4727,
      "Ġwacom": 4728,
      "Ġwrit": 4729,
      "termin": 4730,
      "adata": 4731,
      "ĠFR": 4732,
      "ĠFree": 4733,
      "ĠFAT": 4734,
      "ĠFast": 4735,
      "ĠFDB": 4736,
      "ĠFixup": 4737,
      "raion": 4738,
      "ractx": 4739,
      "raints": 4740,
      "raremono": 4741,
      "Ġiop": 4742,
      "Ġiattrs": 4743,
      "Ġodd": 4744,
      "Ġomit": 4745,
      "Ġoth": 4746,
      "Ġoob": 4747,
      "Ġocc": 4748,
      "Ġni": 4749,
      "Ġnr": 4750,
      "Ġnlink": 4751,
      "Ġnif": 4752,
      "Ġnlk": 4753,
      "Ġnative": 4754,
      "Ġnilfs": 4755,
      "Ġdequeue": 4756,
      "Ġdecaps": 4757,
      "Ġdecode": 4758,
      "Ġdecrement": 4759,
      "Ġdefere": 4760,
      "Ġdegrade": 4761,
      "Ġderegist": 4762,
      "Ġdellink": 4763,
      "Ġdefrags": 4764,
      "Ġdecouple": 4765,
      "Ġdeny": 4766,
      "Ġdeprec": 4767,
      "Ġdestined": 4768,
      "educe": 4769,
      "Ġhi": 4770,
      "Ġhfs": 4771,
      "Ġhif": 4772,
      "Ġhis": 4773,
      "Ġhtable": 4774,
      "Ġhlist": 4775,
      "Ġhfa": 4776,
      "Ġhtab": 4777,
      "Ġhtc": 4778,
      "Ġhang": 4779,
      "Ġhaving": 4780,
      "Ġhda": 4781,
      "Ġhdr": 4782,
      "Ġhints": 4783,
      "Ġhamradio": 4784,
      "Ġhfcs": 4785,
      "Ġhpet": 4786,
      "Ġhonor": 4787,
      "arm": 4788,
      "arse": 4789,
      "args": 4790,
      "armin": 4791,
      "array": 4792,
      "ids": 4793,
      "otow": 4794,
      "ndo": 4795,
      "ndant": 4796,
      "ila": 4797,
      "iler": 4798,
      "ilic": 4799,
      "ility": 4800,
      "ilding": 4801,
      "reexpan": 4802,
      "Ġforceadd": 4803,
      "ips": 4804,
      "ipip": 4805,
      "iplin": 4806,
      "iptunnel": 4807,
      "urning": 4808,
      "urbs": 4809,
      "atech": 4810,
      "mabuf": 4811,
      "iov": 4812,
      "iomap": 4813,
      "ioper": 4814,
      "iostat": 4815,
      "iobus": 4816,
      "scq": 4817,
      "scaler": 4818,
      "Ġuseless": 4819,
      "exist": 4820,
      "except": 4821,
      "vecs": 4822,
      "blems": 4823,
      "Ġvp": 4824,
      "Ġvq": 4825,
      "Ġvfree": 4826,
      "Ġvis": 4827,
      "Ġvht": 4828,
      "Ġvmem": 4829,
      "Ġvsock": 4830,
      "Ġvport": 4831,
      "Ġvie": 4832,
      "Ġvgem": 4833,
      "Ġvicode": 4834,
      "Ġviol": 4835,
      "Ġvdpa": 4836,
      "fsid": 4837,
      "fsync": 4838,
      "fsnotify": 4839,
      "fsaild": 4840,
      "ected": 4841,
      "ĠRET": 4842,
      "ĠRFC": 4843,
      "ĠRNG": 4844,
      "ĠReduce": 4845,
      "ddy": 4846,
      "Ġpois": 4847,
      "Ġpolice": 4848,
      "Ġpower": 4849,
      "Ġpopul": 4850,
      "Ġpostpone": 4851,
      "gests": 4852,
      "Ġled": 4853,
      "Ġless": 4854,
      "Ġleast": 4855,
      "Ġrm": 4856,
      "Ġrp": 4857,
      "Ġrand": 4858,
      "Ġrhash": 4859,
      "Ġrange": 4860,
      "Ġrsi": 4861,
      "Ġrule": 4862,
      "Ġrise": 4863,
      "Ġrssi": 4864,
      "Ġrpc": 4865,
      "Ġrfcomm": 4866,
      "Ġrgrp": 4867,
      "Ġrsvp": 4868,
      "llseek": 4869,
      "Ġktime": 4870,
      "Ġkvc": 4871,
      "Ġkworker": 4872,
      "Ġkfi": 4873,
      "Ġkmemcg": 4874,
      "Ġkhugepaged": 4875,
      "Ġkillable": 4876,
      "Ġkbtab": 4877,
      "Ġkern": 4878,
      "limin": 4879,
      "liber": 4880,
      "libfs": 4881,
      "light": 4882,
      "ope": 4883,
      "opul": 4884,
      "Ġunion": 4885,
      "Ġunco": 4886,
      "Ġunun": 4887,
      "Ġunset": 4888,
      "Ġunmap": 4889,
      "Ġunmo": 4890,
      "Ġunpro": 4891,
      "Ġunint": 4892,
      "Ġunless": 4893,
      "Ġunhash": 4894,
      "Ġunbind": 4895,
      "Ġunused": 4896,
      "Ġunsent": 4897,
      "Ġunexp": 4898,
      "Ġuncondition": 4899,
      "Ġunsafe": 4900,
      "Ġunicode": 4901,
      "Ġunshare": 4902,
      "Ġunfreeze": 4903,
      "Ġunaligned": 4904,
      "Ġunkno": 4905,
      "Ġunwin": 4906,
      "Ġuntermin": 4907,
      "mpi": 4908,
      "mplete": 4909,
      "ockmap": 4910,
      "errors": 4911,
      "Ġaddition": 4912,
      "Ġaddresses": 4913,
      "Ġmems": 4914,
      "Ġmemset": 4915,
      "Ġmemcp": 4916,
      "Ġmemcg": 4917,
      "Ġmemdup": 4918,
      "Ġmemsw": 4919,
      "Ġmemslot": 4920,
      "Ġmembers": 4921,
      "upport": 4922,
      "upied": 4923,
      "uprobe": 4924,
      "col": 4925,
      "cow": 4926,
      "coded": 4927,
      "codel": 4928,
      "comb": 4929,
      "coarse": 4930,
      "urings": 4931,
      "ship": 4932,
      "shake": 4933,
      "shift": 4934,
      "shared": 4935,
      "should": 4936,
      "shutdown": 4937,
      "shrink": 4938,
      "utions": 4939,
      "skip": 4940,
      "skmsg": 4941,
      "skbuff": 4942,
      "outs": 4943,
      "output": 4944,
      "outstand": 4945,
      "devids": 4946,
      "Ġleaked": 4947,
      "tas": 4948,
      "tain": 4949,
      "tack": 4950,
      "tags": 4951,
      "ching": 4952,
      "chip": 4953,
      "chunk": 4954,
      "choke": 4955,
      "chnis": 4956,
      "Ġgc": 4957,
      "Ġgre": 4958,
      "Ġgot": 4959,
      "Ġgem": 4960,
      "Ġgig": 4961,
      "Ġgrp": 4962,
      "Ġgroup": 4963,
      "Ġgarp": 4964,
      "Ġgpio": 4965,
      "Ġgarmin": 4966,
      "uninit": 4967,
      "unbind": 4968,
      "unconf": 4969,
      "undefined": 4970,
      "unshare": 4971,
      "unique": 4972,
      "fold": 4973,
      "ands": 4974,
      "andard": 4975,
      "imm": 4976,
      "iming": 4977,
      "initialize": 4978,
      "Ġfastop": 4979,
      "lacing": 4980,
      "lapic": 4981,
      "lapb": 4982,
      "Ġwithin": 4983,
      "cpus": 4984,
      "cpath": 4985,
      "Ġaltset": 4986,
      "Ġthem": 4987,
      "Ġtheir": 4988,
      "Ġprocce": 4989,
      "Ġproof": 4990,
      "Ġprogs": 4991,
      "Ġproto": 4992,
      "Ġpromote": 4993,
      "Ġprovide": 4994,
      "Ġprodi": 4995,
      "Ġproduce": 4996,
      "Ġproblems": 4997,
      "linkxstats": 4998,
      "801": 4999,
      "iginal": 5000,
      "Ġdevlink": 5001,
      "Ġdevmap": 5002,
      "Ġdevkey": 5003,
      "ifc": 5004,
      "Ġfreeze": 5005,
      "Ġfreezable": 5006,
      "volu": 5007,
      "acks": 5008,
      "ished": 5009,
      "isofs": 5010,
      "isdn": 5011,
      "isplay": 5012,
      "exts": 5013,
      "extent": 5014,
      "extended": 5015,
      "move": 5016,
      "Ġhandshake": 5017,
      "refresh": 5018,
      "Ġskcip": 5019,
      "ĠAF": 5020,
      "ĠAP": 5021,
      "ĠASA": 5022,
      "ĠApp": 5023,
      "ĠAMP": 5024,
      "ĠARP": 5025,
      "ĠABBA": 5026,
      "eld": 5027,
      "elf": 5028,
      "Ġcook": 5029,
      "Ġcoale": 5030,
      "Ġcomma": 5031,
      "Ġconn": 5032,
      "Ġconvert": 5033,
      "Ġcontain": 5034,
      "apped": 5035,
      "aphore": 5036,
      "apparm": 5037,
      "ofda": 5038,
      "offload": 5039,
      "SACK": 5040,
      "ptimize": 5041,
      "rmdir": 5042,
      "Ġansw": 5043,
      "Ġancestr": 5044,
      "ĠNF": 5045,
      "ĠNAPI": 5046,
      "ĠNBD": 5047,
      "ĠNEW": 5048,
      "usbin": 5049,
      "usblp": 5050,
      "usbtmc": 5051,
      "isting": 5052,
      "olating": 5053,
      "ARE": 5054,
      "ARGS": 5055,
      "Ġbearer": 5056,
      "Ġstd": 5057,
      "Ġstill": 5058,
      "Ġstep": 5059,
      "Ġstomp": 5060,
      "Ġstandard": 5061,
      "Ġati": 5062,
      "Ġatm": 5063,
      "Ġattempt": 5064,
      "bulk": 5065,
      "buckets": 5066,
      "getblk": 5067,
      "getunique": 5068,
      "Ġencrypt": 5069,
      "Ġenforce": 5070,
      "ical": 5071,
      "jection": 5072,
      "iry": 5073,
      "irmed": 5074,
      "Ġxa": 5075,
      "Ġxmit": 5076,
      "Ġxarray": 5077,
      "Ġxfsaild": 5078,
      "Ġnotation": 5079,
      "Ġnotify": 5080,
      "ĠRegister": 5081,
      "ĠReplace": 5082,
      "convert": 5083,
      "ĠUNIX": 5084,
      "Ġqp": 5085,
      "orkaround": 5086,
      "Ġhandlers": 5087,
      "mmu": 5088,
      "mmio": 5089,
      "posix": 5090,
      "powm": 5091,
      "pernet": 5092,
      "percpu": 5093,
      "Ġea": 5094,
      "Ġep": 5095,
      "Ġesta": 5096,
      "Ġesn": 5097,
      "Ġegress": 5098,
      "Ġestimation": 5099,
      "Ġewma": 5100,
      "Ġelimin": 5101,
      "Ġejection": 5102,
      "Ġisn": 5103,
      "Ġisofs": 5104,
      "Ġisolating": 5105,
      "ĠPI": 5106,
      "ĠPT": 5107,
      "ĠPV": 5108,
      "ĠPMU": 5109,
      "ĠPush": 5110,
      "ĠPass": 5111,
      "ĠPost": 5112,
      "ĠPTRACE": 5113,
      "ĠPEB": 5114,
      "ĠPOLL": 5115,
      "Ġreadahead": 5116,
      "VMCI": 5117,
      "ively": 5118,
      "string": 5119,
      "strpar": 5120,
      "ĠNUD": 5121,
      "Ġusbcore": 5122,
      "Ġusbmon": 5123,
      "Ġusbtmc": 5124,
      "Ġusbvision": 5125,
      "proto": 5126,
      "profil": 5127,
      "uler": 5128,
      "vmw": 5129,
      "vmon": 5130,
      "vmdelete": 5131,
      "ĠSP": 5132,
      "ĠSync": 5133,
      "ĠSIT": 5134,
      "ĠSynchron": 5135,
      "ĠSIG": 5136,
      "ĠSPI": 5137,
      "ĠSYN": 5138,
      "ĠSwap": 5139,
      "ĠSynth": 5140,
      "ĠSTA": 5141,
      "ĠSimplify": 5142,
      "ĠSockmap": 5143,
      "ĠSupport": 5144,
      "Ġbuild": 5145,
      "Ġbuilding": 5146,
      "Ġbuddy": 5147,
      "pae": 5148,
      "pass": 5149,
      "pared": 5150,
      "paste": 5151,
      "Ġcaching": 5152,
      "Ġipsec": 5153,
      "Ġipmr": 5154,
      "ĠDRE": 5155,
      "ĠDIO": 5156,
      "ĠDEST": 5157,
      "ĠDSS": 5158,
      "ĠDSYNC": 5159,
      "ĠDEAD": 5160,
      "ĠDHCP": 5161,
      "ĠDOI": 5162,
      "blocks": 5163,
      "interval": 5164,
      "Ġsetattr": 5165,
      "Ġsettime": 5166,
      "Ġiomap": 5167,
      "Ġiowq": 5168,
      "Ġiovecs": 5169,
      "ĠCall": 5170,
      "ĠClose": 5171,
      "ĠCopy": 5172,
      "ĠCASE": 5173,
      "ĠCOW": 5174,
      "ĠCPU": 5175,
      "ĠCSD": 5176,
      "ĠChange": 5177,
      "lists": 5178,
      "listen": 5179,
      "letouch": 5180,
      "Ġdont": 5181,
      "counting": 5182,
      "usec": 5183,
      "Ġjump": 5184,
      "Ġjacks": 5185,
      "Ġcleared": 5186,
      "Ġderefence": 5187,
      "MANENT": 5188,
      "memless": 5189,
      "member": 5190,
      "Ġinited": 5191,
      "Ġinitial": 5192,
      "Ġinitalize": 5193,
      "Ġinitcall": 5194,
      "Ġcanonic": 5195,
      "Ġvalidated": 5196,
      "Ġvalidator": 5197,
      "Ġrefer": 5198,
      "Ġbydst": 5199,
      "Ġbypass": 5200,
      "licing": 5201,
      "lications": 5202,
      "Ġskbcnt": 5203,
      "Ġskbprio": 5204,
      "Ġnetem": 5205,
      "Ġuninitalized": 5206,
      "DEST": 5207,
      "DELA": 5208,
      "backs": 5209,
      "backing": 5210,
      "backend": 5211,
      "namei": 5212,
      "names": 5213,
      "buffs": 5214,
      "buffers": 5215,
      "curr": 5216,
      "curate": 5217,
      "current": 5218,
      "Ġshort": 5219,
      "Ġshared": 5220,
      "Ġshrink": 5221,
      "Ġrtx": 5222,
      "validity": 5223,
      "Ġinformat": 5224,
      "Ġwarn": 5225,
      "msrs": 5226,
      "Ġfilename": 5227,
      "ONLY": 5228,
      "cmrvl": 5229,
      "rxep": 5230,
      "Ġheight": 5231,
      "Ġhealth": 5232,
      "Ġexport": 5233,
      "Ġexcess": 5234,
      "Ġexfat": 5235,
      "Ġexplicit": 5236,
      "Ġextern": 5237,
      "Ġexcept": 5238,
      "Ġextack": 5239,
      "Ġexisting": 5240,
      "reader": 5241,
      "readpipe": 5242,
      "Ġthp": 5243,
      "Ġthan": 5244,
      "Ġthreaded": 5245,
      "Ġmain": 5246,
      "Ġmask": 5247,
      "Ġmaster": 5248,
      "Ġmajor": 5249,
      "Ġnesting": 5250,
      "espec": 5251,
      "ĠImplement": 5252,
      "ĠICM": 5253,
      "ĠImpro": 5254,
      "ĠImmediate": 5255,
      "ĠIgnore": 5256,
      "Ġoutgo": 5257,
      "ĠWARNings": 5258,
      "Ġsecle": 5259,
      "Ġsearch": 5260,
      "Ġselector": 5261,
      "Ġsecpath": 5262,
      "Ġannote": 5263,
      "sockaddr": 5264,
      "udo": 5265,
      "udlfb": 5266,
      "udmabuf": 5267,
      "registers": 5268,
      "Ġife": 5269,
      "Ġiftypes": 5270,
      "Ġiforce": 5271,
      "Ġnftables": 5272,
      "Ġnfcmrvl": 5273,
      "Ġasm": 5274,
      "Ġscreen": 5275,
      "Ġscrollback": 5276,
      "Ġscope": 5277,
      "depopul": 5278,
      "fair": 5279,
      "failed": 5280,
      "groups": 5281,
      "ored": 5282,
      "works": 5283,
      "ĠTUN": 5284,
      "ĠTIOC": 5285,
      "ĠTVL": 5286,
      "ĠTSYNC": 5287,
      "ĠTAS": 5288,
      "ĠTLB": 5289,
      "ĠTTY": 5290,
      "Ġlistener": 5291,
      "addref": 5292,
      "1935": 5293,
      "19332": 5294,
      "cred": 5295,
      "creation": 5296,
      "parms": 5297,
      "thp": 5298,
      "this": 5299,
      "Ġchecksum": 5300,
      "Ġtrue": 5301,
      "Ġtrunc": 5302,
      "Ġtruesize": 5303,
      "caif": 5304,
      "dsmark": 5305,
      "tom": 5306,
      "todo": 5307,
      "Ġiters": 5308,
      "Ġpageblock": 5309,
      "Ġpagecache": 5310,
      "Ġlooped": 5311,
      "cursor": 5312,
      "Ġscheduler": 5313,
      "ĠGadget": 5314,
      "ĠGRH": 5315,
      "ĠMore": 5316,
      "ĠMRE": 5317,
      "ĠMbp": 5318,
      "Ġarches": 5319,
      "Ġchaddr": 5320,
      "Ġchoke": 5321,
      "Ġpause": 5322,
      "Ġdisconnected": 5323,
      "wngrade": 5324,
      "Ġgets": 5325,
      "Ġgetname": 5326,
      "Ġgetopt": 5327,
      "Ġcomplex": 5328,
      "pep": 5329,
      "Ġbits": 5330,
      "compress": 5331,
      "compaction": 5332,
      "compiler": 5333,
      "skbprio": 5334,
      "Ġquery": 5335,
      "Ġquatech": 5336,
      "ldir": 5337,
      "Ġinterpre": 5338,
      "fdata": 5339,
      "fdinfo": 5340,
      "ptruesize": 5341,
      "Ġopipe": 5342,
      "flower": 5343,
      "flowlabel": 5344,
      "Ġworkers": 5345,
      "Ġworkaround": 5346,
      "cpufreq": 5347,
      "Ġcontinue": 5348,
      "Ġcontroll": 5349,
      "doit": 5350,
      "domain": 5351,
      "doorbe": 5352,
      "ĠOSS": 5353,
      "ĠORC": 5354,
      "ĠOptimize": 5355,
      "Ġprereq": 5356,
      "Ġprepare": 5357,
      "Ġpredic": 5358,
      "Ġprescaler": 5359,
      "Ġreturning": 5360,
      "Ġoversize": 5361,
      "userdata": 5362,
      "usercopy": 5363,
      "userpolicy": 5364,
      "Ġshifts": 5365,
      "spi": 5366,
      "spdattr": 5367,
      "split": 5368,
      "serial": 5369,
      "Ġmakes": 5370,
      "Ġdisabling": 5371,
      "READ": 5372,
      "REMO": 5373,
      "REPLY": 5374,
      "RETPO": 5375,
      "ĠEP": 5376,
      "ĠECN": 5377,
      "ĠEFI": 5378,
      "ĠETHTO": 5379,
      "ĠEnsure": 5380,
      "ĠErr": 5381,
      "ĠElectr": 5382,
      "attribute": 5383,
      "Ġtags": 5384,
      "Ġallowing": 5385,
      "Ġrefcounts": 5386,
      "2500": 5387,
      "inetpeer": 5388,
      "Ġceph": 5389,
      "ditionally": 5390,
      "rollover": 5391,
      "Ġwritepages": 5392,
      "Ġwritebacks": 5393,
      "Ġgenl": 5394,
      "Ġcells": 5395,
      "nsid": 5396,
      "ppy": 5397,
      "xxu": 5398,
      "Ġextension": 5399,
      "Ġextended": 5400,
      "stamp": 5401,
      "Ġattributes": 5402,
      "oks": 5403,
      "side": 5404,
      "simple": 5405,
      "ĠBail": 5406,
      "ĠBIND": 5407,
      "ĠBADD": 5408,
      "ĠKernel": 5409,
      "ĠKEE": 5410,
      "ĠKFEN": 5411,
      "ĠKMSAN": 5412,
      "ĠKUBSAN": 5413,
      "ether": 5414,
      "ethernet": 5415,
      "Ġtearing": 5416,
      "Ġtechnis": 5417,
      "sendstream": 5418,
      "Ġmoving": 5419,
      "ancestor": 5420,
      "ĠdiFree": 5421,
      "Ġdivision": 5422,
      "Ġdigests": 5423,
      "Ġmacsec": 5424,
      "Ġlengths": 5425,
      "ETHER": 5426,
      "Ġlto": 5427,
      "Ġladdr": 5428,
      "Ġltout": 5429,
      "Ġadmission": 5430,
      "Ġadiantum": 5431,
      "Ġadvmon": 5432,
      "Ġsplicing": 5433,
      "Ġperm": 5434,
      "Ġpermit": 5435,
      "limits": 5436,
      "limited": 5437,
      "Ġunbalance": 5438,
      "Ġuserfaultfd": 5439,
      "Ġcasefold": 5440,
      "fine": 5441,
      "final": 5442,
      "finalize": 5443,
      "srh": 5444,
      "vti": 5445,
      "record": 5446,
      "Ġfbdev": 5447,
      "Ġfbcmap": 5448,
      "secure": 5449,
      "ousbto": 5450,
      "Ġbring": 5451,
      "Ġbrnf": 5452,
      "Ġxfrmi": 5453,
      "txhash": 5454,
      "txtimer": 5455,
      "Ġoperands": 5456,
      "ROPT": 5457,
      "datagram": 5458,
      "ness": 5459,
      "Ġfsid": 5460,
      "Ġcreds": 5461,
      "Ġcreating": 5462,
      "Ġmounts": 5463,
      "Ġholdouts": 5464,
      "Ġconditional": 5465,
      "Ġpassive": 5466,
      "blkdev": 5467,
      "blktrans": 5468,
      "blktrace": 5469,
      "blkcg": 5470,
      "capi": 5471,
      "Ġmess": 5472,
      "Ġregmap": 5473,
      "Ġregdomain": 5474,
      "Ġblkg": 5475,
      "Ġblksz": 5476,
      "Ġendless": 5477,
      "Ġcanceled": 5478,
      "Ġnewly": 5479,
      "Ġnewlink": 5480,
      "ĠIPI": 5481,
      "ĠIPPROTO": 5482,
      "ĠTCF": 5483,
      "Ġgenerate": 5484,
      "formed": 5485,
      "forward": 5486,
      "mountpoint": 5487,
      "Ġswitching": 5488,
      "Ġpark": 5489,
      "Ġparser": 5490,
      "Ġparallel": 5491,
      "Ġwhich": 5492,
      "Ġwhole": 5493,
      "Ġpolling": 5494,
      "Ġkeying": 5495,
      "Ġkeyring": 5496,
      "Ġkeycode": 5497,
      "Ġkeybo": 5498,
      "taskstats": 5499,
      "ifies": 5500,
      "Ġconnector": 5501,
      "Ġconnecting": 5502,
      "Ġconnected": 5503,
      "Ġopener": 5504,
      "Ġtesting": 5505,
      "NOT": 5506,
      "NOFS": 5507,
      "OBAL": 5508,
      "mdsc": 5509,
      "xskmap": 5510,
      "Ġsystem": 5511,
      "ledisplay": 5512,
      "Ġpartial": 5513,
      "Ġpartitions": 5514,
      "Ġregistering": 5515,
      "addrconf": 5516,
      "ANCING": 5517,
      "subscript": 5518,
      "subsystem": 5519,
      "Ġrole": 5520,
      "Ġrobot": 5521,
      "Ġbadness": 5522,
      "Ġdvbdev": 5523,
      "Ġvmk": 5524,
      "Ġvmw": 5525,
      "Ġvmalloc": 5526,
      "Ġvmci": 5527,
      "Ġvmlinux": 5528,
      "Ġinterrupted": 5529,
      "Ġinterruptible": 5530,
      "Ġcontexts": 5531,
      "ERR": 5532,
      "ERSP": 5533,
      "ERIAL": 5534,
      "fqname": 5535,
      "Ġembed": 5536,
      "Ġethernet": 5537,
      "Ġintensive": 5538,
      "Ġintfdata": 5539,
      "Ġaccurate": 5540,
      "Ġserdev": 5541,
      "Ġserver": 5542,
      "Ġbroad": 5543,
      "transfer": 5544,
      "expire": 5545,
      "expiry": 5546,
      "Ġcommon": 5547,
      "connector": 5548,
      "processor": 5549,
      "ĠDowngrade": 5550,
      "Ġinitializing": 5551,
      "Ġdirectories": 5552,
      "ITING": 5553,
      "lank": 5554,
      "monitor": 5555,
      "sqpoll": 5556,
      "timestamp": 5557,
      "ĠXTS": 5558,
      "ĠXFR": 5559,
      "Ġlimits": 5560,
      "requests": 5561,
      "Ġfifo": 5562,
      "Ġinputq": 5563,
      "Ġsubmit": 5564,
      "Ġpeb": 5565,
      "Ġpeer": 5566,
      "Ġiguan": 5567,
      "Ġnoblock": 5568,
      "Ġnoinstr": 5569,
      "ĠRESET": 5570,
      "Ġexits": 5571,
      "Ġexiting": 5572,
      "Ġupdates": 5573,
      "Ġtimeouts": 5574,
      "SIMP": 5575,
      "SIGINFO": 5576,
      "STED": 5577,
      "bitset": 5578,
      "cbq": 5579,
      "phy": 5580,
      "phan": 5581,
      "phonet": 5582,
      "ĠLo": 5583,
      "ĠLet": 5584,
      "ĠLock": 5585,
      "ĠLAP": 5586,
      "ĠLVID": 5587,
      "Ġsqpoll": 5588,
      "Ġtraced": 5589,
      "Ġtraces": 5590,
      "Ġtracepoint": 5591,
      "Ġrecords": 5592,
      "Ġresolve": 5593,
      "Ġreported": 5594,
      "Ġreleased": 5595,
      "ctxs": 5596,
      "Ġida": 5597,
      "Ġidx": 5598,
      "Ġnamespace": 5599,
      "Ġholtek": 5600,
      "ĠRTA": 5601,
      "ificant": 5602,
      "Ġeverywhe": 5603,
      "Ġtransact": 5604,
      "Ġtranslate": 5605,
      "Ġtransaction": 5606,
      "downgrade": 5607,
      "1211": 5608,
      "8150": 5609,
      "8152": 5610,
      "CMSG": 5611,
      "ENER": 5612,
      "FOLD": 5613,
      "NLDEV": 5614,
      "SETLINK": 5615,
      "TUNMAP": 5616,
      "gps": 5617,
      "gpio": 5618,
      "prep": 5619,
      "prepared": 5620,
      "Ġzd": 5621,
      "Ġzone": 5622,
      "Ġzapped": 5623,
      "ĠINT": 5624,
      "loopback": 5625,
      "Ġprimit": 5626,
      "Ġpriming": 5627,
      "seqpkt": 5628,
      "startup": 5629,
      "Ġmulti": 5630,
      "Ġreplay": 5631,
      "Ġreplacing": 5632,
      "Ġbackpointer": 5633,
      "scratch": 5634,
      "Ġvblank": 5635,
      "Ġunlocked": 5636,
      "Ġmemleaks": 5637,
      "unclone": 5638,
      "Ġpropagation": 5639,
      "Ġtagged": 5640,
      "Ġextract": 5641,
      "Ġsuperflu": 5642,
      "Ġsupported": 5643,
      "controlled": 5644,
      "ICY": 5645,
      "UNSH": 5646,
      "UNSP": 5647,
      "UNTS": 5648,
      "UNINTER": 5649,
      "hoc": 5650,
      "hooks": 5651,
      "watchers": 5652,
      "Ġ10": 5653,
      "Ġyiel": 5654,
      "Ġactions": 5655,
      "Ġactiv": 5656,
      "lobby": 5657,
      "stored": 5658,
      "streams": 5659,
      "Ġmisaligned": 5660,
      "Ġmisleading": 5661,
      "Ġmissed": 5662,
      "Ġdetection": 5663,
      "extract": 5664,
      "Ġconntracks": 5665,
      "Ġstarted": 5666,
      "perfect": 5667,
      "ĠProvide": 5668,
      "progress": 5669,
      "Ġexecute": 5670,
      "Ġexecution": 5671,
      "Ġstacking": 5672,
      "Ġpreemptible": 5673,
      "ĠExtend": 5674,
      "IGMP": 5675,
      "LOGIC": 5676,
      "OMM": 5677,
      "acct": 5678,
      "acquire": 5679,
      "accounting": 5680,
      "dccp": 5681,
      "handling": 5682,
      "rings": 5683,
      "ringbuf": 5684,
      "ĠHold": 5685,
      "ĠHyper": 5686,
      "ĠHCI": 5687,
      "ĠWait": 5688,
      "ĠWorkaround": 5689,
      "Ġfinished": 5690,
      "Ġsimple": 5691,
      "Ġsiano": 5692,
      "Ġsmsc": 5693,
      "Ġsignals": 5694,
      "Ġsignalfd": 5695,
      "Ġtxq": 5696,
      "algo": 5697,
      "Ġreqs": 5698,
      "Ġreqsk": 5699,
      "Ġbinder": 5700,
      "Ġdmabuf": 5701,
      "Ġibss": 5702,
      "Ġhooks": 5703,
      "Ġvti": 5704,
      "Ġrings": 5705,
      "Ġunlinked": 5706,
      "Ġaddrconf": 5707,
      "Ġprocessed": 5708,
      "Ġebt": 5709,
      "umentation": 5710,
      "Ġcleaning": 5711,
      "newlink": 5712,
      "neighbour": 5713,
      "Ġcancelation": 5714,
      "Ġcancelations": 5715,
      "Ġcancellations": 5716,
      "diskdq": 5717,
      "Ġvariables": 5718,
      "Ġseparately": 5719,
      "88178": 5720,
      "88179": 5721,
      "EXTRA": 5722,
      "EXEC": 5723,
      "NESTED": 5724,
      "ability": 5725,
      "ratelimited": 5726,
      "siglock": 5727,
      "tcf": 5728,
      "teardown": 5729,
      "Ġself": 5730,
      "Ġtakes": 5731,
      "Ġplacement": 5732,
      "Ġwalker": 5733,
      "Ġwalking": 5734,
      "Ġverified": 5735,
      "changelink": 5736,
      "Ġstopped": 5737,
      "ĠSCO": 5738,
      "Ġloading": 5739,
      "Ġlooking": 5740,
      "Ġheaders": 5741,
      "Ġheadroom": 5742,
      "Ġiteration": 5743,
      "Ġiterating": 5744,
      "Ġiterator": 5745,
      "Ġchains": 5746,
      "Ġcompatible": 5747,
      "ĠBHs": 5748,
      "Ġmodify": 5749,
      "Ġmodifies": 5750,
      "Ġfield": 5751,
      "hostname": 5752,
      "Ġautoclear": 5753,
      "Ġarguments": 5754,
      "HASHED": 5755,
      "SEQ": 5756,
      "based": 5757,
      "dupcook": 5758,
      "firmware": 5759,
      "field": 5760,
      "mesh": 5761,
      "message": 5762,
      "panic": 5763,
      "rgrp": 5764,
      "rwlock": 5765,
      "rwsem": 5766,
      "radix": 5767,
      "radiot": 5768,
      "tfm": 5769,
      "Ġlower": 5770,
      "Ġcapture": 5771,
      "Ġcounterpart": 5772,
      "Ġsbi": 5773,
      "Ġsyncfs": 5774,
      "Ġtiming": 5775,
      "Ġtimespec": 5776,
      "Ġterminated": 5777,
      "Ġterminating": 5778,
      "allowed": 5779,
      "Ġmdiobus": 5780,
      "Ġmonitors": 5781,
      "Ġbatched": 5782,
      "Ġimage": 5783,
      "Ġimageblit": 5784,
      "Ġdestroying": 5785,
      "Ġhypercall": 5786,
      "screenbuf": 5787,
      "Ġoffset": 5788,
      "libceph": 5789,
      "libnvd": 5790,
      "command": 5791,
      "Ġconstraints": 5792,
      "appledisplay": 5793,
      "Ġxskmap": 5794,
      "Ġdoesn": 5795,
      "cancelled": 5796,
      "interruptible": 5797,
      "ĠCoW": 5798,
      "ĠComplete": 5799,
      "ĠConn": 5800,
      "DEVICE": 5801,
      "ĠIDs": 5802,
      "ĠIncrease": 5803,
      "fails": 5804,
      "Ġinstalling": 5805,
      "Ġlonger": 5806,
      "Ġassignment": 5807,
      "Ġasserts": 5808,
      "Ġregular": 5809,
      "POLICY": 5810,
      "Ġfilesystems": 5811,
      "Ġreplaced": 5812,
      "Ġreplacement": 5813,
      "CPUID": 5814,
      "Ġnexthops": 5815,
      "Ġparameter": 5816,
      "111": 5817,
      "7830": 5818,
      "AMIC": 5819,
      "CLOEXEC": 5820,
      "IPV": 5821,
      "WAY": 5822,
      "assert": 5823,
      "assoc": 5824,
      "auth": 5825,
      "autofs": 5826,
      "autobind": 5827,
      "copied": 5828,
      "elevator": 5829,
      "metalist": 5830,
      "osf": 5831,
      "osif": 5832,
      "padata": 5833,
      "padto": 5834,
      "vdpa": 5835,
      "withdraw": 5836,
      "ĠJitter": 5837,
      "Ġoriginal": 5838,
      "Ġorphan": 5839,
      "reserved": 5840,
      "Ġindexes": 5841,
      "Ġappend": 5842,
      "Ġappletouch": 5843,
      "Ġapplications": 5844,
      "Ġctl": 5845,
      "Ġctnetlink": 5846,
      "Ġclass": 5847,
      "Ġcsums": 5848,
      "Ġspecial": 5849,
      "Ġtraff": 5850,
      "Ġtapr": 5851,
      "Ġtouching": 5852,
      "Ġpanid": 5853,
      "Ġpublish": 5854,
      "headroom": 5855,
      "Ġmalformed": 5856,
      "Ġrepaired": 5857,
      "Ġbusy": 5858,
      "Ġdisciplin": 5859,
      "ĠForce": 5860,
      "Ġnfsd": 5861,
      "Ġnodes": 5862,
      "Ġnodeid": 5863,
      "Ġdecompression": 5864,
      "Ġharder": 5865,
      "Ġhardware": 5866,
      "Ġhardcoded": 5867,
      "triggered": 5868,
      "Ġvsysc": 5869,
      "Ġpolicer": 5870,
      "Ġrunning": 5871,
      "Ġkaractx": 5872,
      "ĠAccept": 5873,
      "Ġcolormap": 5874,
      "Ġenabled": 5875,
      "Ġxattrs": 5876,
      "configuration": 5877,
      "ĠDelay": 5878,
      "ĠDecrease": 5879,
      "ĠDefine": 5880,
      "Ġiova": 5881,
      "Ġexpire": 5882,
      "ĠIRQs": 5883,
      "ĠTHPs": 5884,
      "ĠMSG": 5885,
      "ĠMSFT": 5886,
      "Ġinstances": 5887,
      "Ġstructures": 5888,
      "mdiobus": 5889,
      "Ġintroduced": 5890,
      "timeouts": 5891,
      "Ġresolved": 5892,
      "Ġresolution": 5893,
      "Ġresolutions": 5894,
      "Ġprintked": 5895,
      "Ġmultipath": 5896,
      "Ġsucceeds": 5897,
      "Ġhugetlbfs": 5898,
      "ĠQPN": 5899,
      "Ġdynamically": 5900,
      "Ġasynchronously": 5901,
      "109": 5902,
      "2019": 5903,
      "2038": 5904,
      "384": 5905,
      "7045": 5906,
      "905": 5907,
      "GSERIAL": 5908,
      "ISDN": 5909,
      "MORE": 5910,
      "NUMA": 5911,
      "NUMHO": 5912,
      "PageTail": 5913,
      "PageWrite": 5914,
      "PERMANENT": 5915,
      "RPC": 5916,
      "STRING": 5917,
      "STRSET": 5918,
      "TODEVICE": 5919,
      "VLAN": 5920,
      "WRROPT": 5921,
      "access": 5922,
      "accept": 5923,
      "breakpoint": 5924,
      "breakpoints": 5925,
      "dtor": 5926,
      "filldir": 5927,
      "imageblit": 5928,
      "mkiss": 5929,
      "obj": 5930,
      "rsvp": 5931,
      "sced": 5932,
      "tgchk": 5933,
      "tgdtor": 5934,
      "traps": 5935,
      "inflight": 5936,
      "instance": 5937,
      "registered": 5938,
      "recursion": 5939,
      "recursive": 5940,
      "Ġfdinfo": 5941,
      "Ġfwd": 5942,
      "Ġfilling": 5943,
      "Ġccid": 5944,
      "Ġcycle": 5945,
      "Ġcyclic": 5946,
      "Ġcluster": 5947,
      "Ġclusters": 5948,
      "Ġcloned": 5949,
      "Ġclonned": 5950,
      "Ġsane": 5951,
      "Ġsanitize": 5952,
      "Ġsigqueue": 5953,
      "Ġsigtrap": 5954,
      "Ġsoftware": 5955,
      "descriptor": 5956,
      "descriptors": 5957,
      "Ġmeta": 5958,
      "Ġmetadata": 5959,
      "Ġmany": 5960,
      "Ġmanager": 5961,
      "Ġmarkings": 5962,
      "Ġrecent": 5963,
      "Ġrecently": 5964,
      "Ġretransmission": 5965,
      "Ġdsmark": 5966,
      "Ġoveflow": 5967,
      "Ġoverestimation": 5968,
      "Ġdepends": 5969,
      "Ġdependency": 5970,
      "argv": 5971,
      "iolaten": 5972,
      "Ġvcsu": 5973,
      "ĠRDS": 5974,
      "ĠRDWR": 5975,
      "Ġlegotow": 5976,
      "Ġlegousbto": 5977,
      "Ġunpark": 5978,
      "Ġunparked": 5979,
      "cookie": 5980,
      "chkpt": 5981,
      "Ġgfn": 5982,
      "Ġgfp": 5983,
      "unkillable": 5984,
      "ifaces": 5985,
      "Ġcollapse": 5986,
      "Ġcollapsing": 5987,
      "Ġconditions": 5988,
      "ĠNever": 5989,
      "ĠNested": 5990,
      "ĠPFN": 5991,
      "ĠDirectly": 5992,
      "interfaces": 5993,
      "INTERP": 5994,
      "Ġlogical": 5995,
      "Ġsecondary": 5996,
      "ĠTranslate": 5997,
      "ĠTransform": 5998,
      "Ġitems": 5999,
      "Ġintervals": 6000,
      "querycap": 6001,
      "ĠEXT": 6002,
      "ĠEXITING": 6003,
      "Ġallowedips": 6004,
      "Ġadvance": 6005,
      "Ġconnectionless": 6006,
      "Ġfragments": 6007,
      "Ġreporters": 6008,
      "Ġdeferredq": 6009,
      "LISTENER": 6010,
      "NEWLINK": 6011,
      "Ġprefixes": 6012,
      "Ġgrabbing": 6013,
      "Ġcharacter": 6014,
      "Ġcharacters": 6015,
      "Ġchannels": 6016,
      "Ġownership": 6017,
      "COMPAT": 6018,
      "COMPLET": 6019,
      "Ġsisusbvga": 6020,
      "Ġversioning": 6021,
      "Ġalgorithm": 6022,
      "Ġalgorithms": 6023,
      "Ġevaluate": 6024,
      "Ġevaluation": 6025,
      "0828": 6026,
      "14681": 6027,
      "2490": 6028,
      "2000": 6029,
      "3559": 6030,
      "6501": 6031,
      "6027": 6032,
      "7007": 6033,
      "9800": 6034,
      "9005": 6035,
      "9063": 6036,
      "Abort": 6037,
      "BALANCING": 6038,
      "BINDTODEVICE": 6039,
      "COUNTS": 6040,
      "DONTUNMAP": 6041,
      "DATA": 6042,
      "DYNAMIC": 6043,
      "EINTR": 6044,
      "EMULAT": 6045,
      "EPERM": 6046,
      "FERRED": 6047,
      "GLOBAL": 6048,
      "GATEWAY": 6049,
      "HRD": 6050,
      "KOBJ": 6051,
      "KEYS": 6052,
      "LSM": 6053,
      "LOCAL": 6054,
      "MEMALLOC": 6055,
      "PALIVE": 6056,
      "PREFERRED": 6057,
      "PENDING": 6058,
      "PEEK": 6059,
      "RUPTIBLE": 6060,
      "RATEEST": 6061,
      "SVC": 6062,
      "SUNRPC": 6063,
      "UART": 6064,
      "Uprobes": 6065,
      "Yama": 6066,
      "[].": 6067,
      "bcsp": 6068,
      "bprintf": 6069,
      "binfmt": 6070,
      "blishment": 6071,
      "cdrom": 6072,
      "catmap": 6073,
      "calipso": 6074,
      "catchall": 6075,
      "dissector": 6076,
      "dynroot": 6077,
      "estimator": 6078,
      "floppy": 6079,
      "frozen": 6080,
      "fledged": 6081,
      "frontends": 6082,
      "features": 6083,
      "gyt": 6084,
      "guest": 6085,
      "gpte": 6086,
      "gtod": 6087,
      "gendisk": 6088,
      "hva": 6089,
      "hmacs": 6090,
      "jiffies": 6091,
      "kernfs": 6092,
      "keeptruesize": 6093,
      "keepalive": 6094,
      "kcsan": 6095,
      "merge": 6096,
      "mwifiex": 6097,
      "nofail": 6098,
      "needed": 6099,
      "number": 6100,
      "nbytes": 6101,
      "normal": 6102,
      "ootb": 6103,
      "pseudo": 6104,
      "pversion": 6105,
      "prefix": 6106,
      "plug": 6107,
      "privs": 6108,
      "planes": 6109,
      "priority": 6110,
      "riscv": 6111,
      "sanitize": 6112,
      "significant": 6113,
      "sighand": 6114,
      "tmplt": 6115,
      "vxlan": 6116,
      "vidioc": 6117,
      "wwan": 6118,
      "Ġentity": 6119,
      "Ġlocation": 6120,
      "ĠOCB": 6121,
      "Ġramfs": 6122,
      "Ġrapid": 6123,
      "inspect": 6124,
      "reverse": 6125,
      "reuseport": 6126,
      "Ġfanout": 6127,
      "Ġfuzzing": 6128,
      "ethhdr": 6129,
      "Ġinjected": 6130,
      "Ġinstrumentation": 6131,
      "Ġinstructions": 6132,
      "Ġinactive": 6133,
      "Ġatributes": 6134,
      "Ġabuse": 6135,
      "Ġaway": 6136,
      "Ġaesni": 6137,
      "Ġavailability": 6138,
      "onality": 6139,
      "Ġclcsock": 6140,
      "Ġcinergyt": 6141,
      "Ġsleep": 6142,
      "Ġsense": 6143,
      "Ġsidtab": 6144,
      "Ġsemaphore": 6145,
      "Ġsentinel": 6146,
      "Ġsnto": 6147,
      "Ġslave": 6148,
      "Ġsmsusb": 6149,
      "Ġsparing": 6150,
      "Ġspeed": 6151,
      "Ġsmackfs": 6152,
      "learn": 6153,
      "descendant": 6154,
      "attach": 6155,
      "Ġtoneport": 6156,
      "Ġtemporary": 6157,
      "Ġtiocsti": 6158,
      "Ġpulled": 6159,
      "Ġpressure": 6160,
      "Ġpersonality": 6161,
      "Ġpvclock": 6162,
      "Ġphysical": 6163,
      "aligment": 6164,
      "semaphore": 6165,
      "security": 6166,
      "secretmem": 6167,
      "segments": 6168,
      "Ġudmabuf": 6169,
      "Ġumounts": 6170,
      "Ġmmput": 6171,
      "Ġmigration": 6172,
      "Ġmicrotek": 6173,
      "Ġmulaw": 6174,
      "anchored": 6175,
      "Ġregistered": 6176,
      "Ġreallocation": 6177,
      "Ġrecurse": 6178,
      "Ġreconfigure": 6179,
      "Ġbottom": 6180,
      "Ġboosting": 6181,
      "Ġbpqether": 6182,
      "Ġdocket": 6183,
      "Ġdigitv": 6184,
      "Ġdirs": 6185,
      "Ġdbells": 6186,
      "Ġdrbg": 6187,
      "Ġwidth": 6188,
      "Ġwatchpoints": 6189,
      "Ġwasn": 6190,
      "Ġwriting": 6191,
      "Ġioprio": 6192,
      "Ġother": 6193,
      "Ġoccupied": 6194,
      "Ġnifty": 6195,
      "Ġdecapsulation": 6196,
      "Ġdecrementing": 6197,
      "Ġdeferencing": 6198,
      "Ġderegistraion": 6199,
      "Ġdeprecated": 6200,
      "Ġhisilic": 6201,
      "Ġhangup": 6202,
      "Ġhfcsusb": 6203,
      "reexpanded": 6204,
      "ioperm": 6205,
      "exceptions": 6206,
      "Ġvisible": 6207,
      "Ġvmemdup": 6208,
      "Ġview": 6209,
      "Ġvicodec": 6210,
      "Ġviolation": 6211,
      "ĠRFCOMM": 6212,
      "Ġpoison": 6213,
      "Ġpowerpc": 6214,
      "Ġpopulating": 6215,
      "Ġrandom": 6216,
      "Ġrhashtable": 6217,
      "Ġrules": 6218,
      "Ġkvcalloc": 6219,
      "Ġkfifo": 6220,
      "libertas": 6221,
      "Ġuncoditionally": 6222,
      "Ġununit": 6223,
      "Ġunmovable": 6224,
      "Ġunprocessed": 6225,
      "Ġunintended": 6226,
      "Ġunexpected": 6227,
      "Ġunconditionally": 6228,
      "Ġunknown": 6229,
      "Ġunwinding": 6230,
      "Ġunterminated": 6231,
      "Ġmemcpy": 6232,
      "Ġmemslots": 6233,
      "combination": 6234,
      "outstanding": 6235,
      "Ġgigaset": 6236,
      "unconfirmed": 6237,
      "Ġfastopen": 6238,
      "Ġaltsetting": 6239,
      "Ġproccessing": 6240,
      "Ġprotocol": 6241,
      "Ġprodikeys": 6242,
      "volume": 6243,
      "Ġskcipher": 6244,
      "ĠASAP": 6245,
      "ĠApply": 6246,
      "ĠARPHRD": 6247,
      "Ġcookie": 6248,
      "Ġcoalesced": 6249,
      "apparmor": 6250,
      "ofday": 6251,
      "Ġanswers": 6252,
      "Ġancestry": 6253,
      "Ġencryption": 6254,
      "Ġestablishment": 6255,
      "Ġeliminate": 6256,
      "ĠPostpone": 6257,
      "ĠPOLLFREE": 6258,
      "strparser": 6259,
      "profiling": 6260,
      "ĠSynchronize": 6261,
      "ĠSIGKILL": 6262,
      "ĠSynthetic": 6263,
      "ĠDREG": 6264,
      "ĠDESTROY": 6265,
      "ĠDEADLINE": 6266,
      "Ġsettimeofday": 6267,
      "ĠCASEFOLD": 6268,
      "ĠCPUID": 6269,
      "Ġcanonicalize": 6270,
      "DESTROY": 6271,
      "DELAYED": 6272,
      "Ġshrinker": 6273,
      "Ġinformaton": 6274,
      "Ġexcessively": 6275,
      "Ġexception": 6276,
      "ĠICMP": 6277,
      "ĠImprove": 6278,
      "ĠImmediately": 6279,
      "Ġoutgoing": 6280,
      "Ġseclevel": 6281,
      "Ġsearching": 6282,
      "depopulate": 6283,
      "ĠTUNSETLINK": 6284,
      "ĠTIOCGSERIAL": 6285,
      "ĠTVLV": 6286,
      "ĠTASK": 6287,
      "Ġtruncate": 6288,
      "ĠMREMAP": 6289,
      "ĠMbps": 6290,
      "Ġinterpreter": 6291,
      "Ġcontrollers": 6292,
      "doorbells": 6293,
      "Ġprereqs": 6294,
      "Ġpredicate": 6295,
      "READY": 6296,
      "REMOVE": 6297,
      "RETPOLINE": 6298,
      "ĠETHTOOL": 6299,
      "ĠError": 6300,
      "ĠElectric": 6301,
      "ĠBINDING": 6302,
      "ĠKEEPALIVE": 6303,
      "ĠKFENCE": 6304,
      "Ġtechnisat": 6305,
      "Ġunbalanced": 6306,
      "Ġblkszbits": 6307,
      "Ġkeycodes": 6308,
      "Ġkeyboard": 6309,
      "subscription": 6310,
      "subsystems": 6311,
      "Ġrobotfuzz": 6312,
      "ERSPAN": 6313,
      "Ġembedd": 6314,
      "ĠXFRMA": 6315,
      "Ġiguanair": 6316,
      "SIMPLE": 6317,
      "ĠLAPIC": 6318,
      "Ġeverywhere": 6319,
      "Ġtransactions": 6320,
      "Ġprimitive": 6321,
      "Ġsuperfluous": 6322,
      "UNSHARE": 6323,
      "UNSPEC": 6324,
      "UNINTERRUPTIBLE": 6325,
      "Ġyielding": 6326,
      "Ġactivated": 6327,
      "LOGICAL": 6328,
      "diskdqb": 6329,
      "radiotap": 6330,
      "Ġhypercalls": 6331,
      "libnvdimm": 6332,
      "Ġtraffic": 6333,
      "Ġdisciplines": 6334,
      "Ġvsyscall": 6335,
      "NUMHOOKS": 6336,
      "PageWriteback": 6337,
      "iolatency": 6338,
      "Ġlegotower": 6339,
      "Ġlegousbtower": 6340,
      "COMPLETE": 6341,
      "146818": 6342,
      "EMULATED": 6343,
      "Ġhisilicon": 6344
    },
    "merges": [
      "i n",
      "r e",
      "Ġ f",
      "e r",
      "e t",
      "Ġ in",
      "Ġ a",
      "i x",
      "o n",
      "Ġ c",
      "Ġ s",
      "c k",
      "o r",
      "( )",
      "l e",
      "d e",
      "i t",
      "a t",
      "l o",
      "Ġ t",
      "Ġ p",
      "in g",
      "a l",
      "Ġf ix",
      "h e",
      "n et",
      "s e",
      "Ġ u",
      "s t",
      "c e",
      "Ġ m",
      "a n",
      "o u",
      "Ġ re",
      "c t",
      "Ġ b",
      "e n",
      "Ġ d",
      "r o",
      "Ġ w",
      "t er",
      "a d",
      "Ġ F",
      "lo ck",
      "ĠF ix",
      "s s",
      "i on",
      "r a",
      "Ġ i",
      "Ġ o",
      "Ġ n",
      "Ġ de",
      "e d",
      "Ġ h",
      "a r",
      "i d",
      "o t",
      "e m",
      "n d",
      "i l",
      "re e",
      "Ġf or",
      "he ck",
      "a k",
      "u e",
      "Ġt o",
      "t r",
      "i p",
      "u r",
      "at e",
      "m a",
      "i o",
      "s c",
      "Ġu se",
      "Ġ on",
      "e x",
      "v e",
      "Ġc heck",
      "b le",
      "Ġo f",
      "Ġ v",
      "f s",
      "en t",
      "e ct",
      "Ġ R",
      "d d",
      "Ġp o",
      "g e",
      "n t",
      "Ġ le",
      "Ġ r",
      "l l",
      "Ġ k",
      "u s",
      "l i",
      "f ter",
      "o p",
      "er r",
      "Ġu n",
      "i z",
      "m p",
      "ra ce",
      "o ck",
      "at ion",
      "err or",
      "Ġa dd",
      "Ġm em",
      "Ġ error",
      "u p",
      "al l",
      "c o",
      "Ġ lock",
      "ur ing",
      "s h",
      "u t",
      "f ree",
      "or y",
      "- >",
      "s k",
      "ou t",
      "p f",
      "de v",
      "Ġle ak",
      "t a",
      "c h",
      "u re",
      "Ġ g",
      "i al",
      "u n",
      "f o",
      "an d",
      "l in",
      "he d",
      "Ġu s",
      "i m",
      "Ġmem ory",
      "s et",
      "v er",
      "it h",
      "lo c",
      "in it",
      "Ġf a",
      "l a",
      "he n",
      "Ġw hen",
      "Ġa nd",
      "Ġw ith",
      "c p",
      "l y",
      "Ġa l",
      "Ġt he",
      "il ter",
      "i a",
      "c u",
      "Ġp ro",
      "lin k",
      "Ġ race",
      "b pf",
      "8 0",
      "i g",
      "i le",
      "Ġs ock",
      "Ġde v",
      "i f",
      "Ġf ree",
      "80 2",
      "f ilter",
      "v o",
      "ou nd",
      "ou nt",
      "iz e",
      "ma p",
      "802 1",
      "a ck",
      "i s",
      "al id",
      "net filter",
      "ex t",
      "i ce",
      "a fter",
      "m o",
      "Ġh and",
      "q ue",
      "re f",
      "Ġs k",
      "m ed",
      "Ġ A",
      "ro m",
      "c ce",
      "e l",
      "Ġc o",
      "Ġc on",
      "a p",
      "a m",
      "o f",
      "Ġc all",
      "S A",
      "p t",
      "ip c",
      "vo id",
      "r m",
      "Ġa n",
      "sc hed",
      "Ġ N",
      "us b",
      "i st",
      "o l",
      "A R",
      "Ġb e",
      "med ia",
      "L L",
      "Ġs t",
      "v ent",
      "8021 1",
      "' t",
      "W AR",
      "Ġf rom",
      "Ġa cce",
      "lo w",
      "WAR N",
      "Ġa t",
      "at a",
      "A L",
      "a ge",
      "b u",
      "g et",
      "u ct",
      "Ġ en",
      "i c",
      "j ect",
      "o de",
      "i r",
      "Ġre mo",
      "n el",
      "Ġ x",
      "Ġn ot",
      "ĠR e",
      "c on",
      "Ġ U",
      "Ġ q",
      "or k",
      "Ġhand l",
      "m m",
      "p o",
      "p er",
      "Ġ e",
      "Ġa fter",
      "at h",
      "Ġi s",
      "g ist",
      "Ġ P",
      "Ġre ad",
      "V M",
      "a sh",
      "i sc",
      "i ve",
      "st r",
      "ĠN U",
      "AL SA",
      "Ġus b",
      "ĠNU LL",
      "l u",
      "n ect",
      "p ro",
      "u l",
      "C U",
      "b ound",
      "v m",
      "Ġ S",
      "e e",
      "r cu",
      "net link",
      "Ġb u",
      "ĠR CU",
      "co v",
      "Ġdev ice",
      "p a",
      "Ġc a",
      "Ġs tr",
      "lo se",
      "ta ble",
      "l s",
      "Ġi p",
      "u m",
      "u ll",
      "Ġ D",
      "Ġd o",
      "am e",
      "O C",
      "b lock",
      "c an",
      "h t",
      "in ter",
      "it e",
      "fo re",
      "Ġbe fore",
      "S B",
      "a ble",
      "f rm",
      "Ġa void",
      "Ġs et",
      "Ġi o",
      "ot h",
      "ak e",
      "n ce",
      "t ipc",
      "Ġ C",
      "li st",
      "que ue",
      "l et",
      "w a",
      "re vent",
      "er o",
      "Ġd on",
      "Ġd ata",
      "Ġfa il",
      "Ġacce ss",
      "gist er",
      "8 6",
      "U SB",
      "c ount",
      "s it",
      "u se",
      "v al",
      "Ġ j",
      "Ġc le",
      "al loc",
      "Ġde ad",
      "Ġde ref",
      "Ġal loc",
      "I N",
      "t cp",
      "z ero",
      "bound s",
      "Ġdead lock",
      "b e",
      "Ġ lo",
      "it y",
      "str uct",
      "B lu",
      "M A",
      "m em",
      "n l",
      "o oth",
      "r ou",
      "et ooth",
      "Ġin it",
      "Ġc an",
      "Ġp ot",
      "ip v",
      "ma c",
      "Ġv alid",
      "ent ial",
      "Blu etooth",
      "Ġpot ential",
      "e re",
      "n ot",
      "p ut",
      "Ġre f",
      "Ġb y",
      "li c",
      "Ġsk b",
      "K VM",
      "n ing",
      "Ġ net",
      "re ct",
      "re ss",
      "ct p",
      "Ġun init",
      "Ġremo ve",
      "D E",
      "b ack",
      "n ame",
      "r ite",
      "or t",
      "Ġpo inter",
      "bu f",
      "ul t",
      "c ur",
      "Ġ \"",
      "Ġs h",
      "Ġp ath",
      "Ġhandl ing",
      "d ing",
      "Ġf al",
      "Ġr t",
      "Ġfal se",
      "_ _",
      "v alid",
      "y s",
      "Ġin f",
      "Ġw ar",
      "ar t",
      "ver t",
      "ere nce",
      "i ble",
      "m s",
      "m it",
      "s ure",
      "t ls",
      "w e",
      "Ġ __",
      "Ġf ile",
      "er s",
      "Ġwar ning",
      "O N",
      "c m",
      "r p",
      "r x",
      "Ġ he",
      "Ġ ex",
      "re ad",
      "Ġc lose",
      "Ġt h",
      "st ro",
      "Ġm a",
      "Ġn e",
      "stro y",
      "c i",
      "e s",
      "h h",
      "r i",
      "Ġ I",
      "Ġ out",
      "Ġ WARN",
      "in t",
      "Ġs e",
      "Ġu p",
      "Ġk cov",
      "Ġsock et",
      "Ġan not",
      "ĠRe ject",
      "OC K",
      "1 9",
      "g ing",
      "s ock",
      "u d",
      "in d",
      "re gister",
      "on nect",
      "Ġi f",
      "Ġn f",
      "Ġpo ss",
      "Ġpo sit",
      "ial iz",
      "isc onnect",
      "Ġposit ive",
      "g s",
      "Ġa s",
      "Ġs c",
      "de p",
      "ss ing",
      "im er",
      "rou p",
      "L OCK",
      "f a",
      "g roup",
      "o re",
      "x frm",
      "de stroy",
      "table s",
      "Ġposs ible",
      "p ort",
      "w ork",
      "Ġ T",
      "Ġ list",
      "er nel",
      "Ġm ap",
      "an up",
      "ad d",
      "DE P",
      "19 3",
      "Ġpositive s",
      "LOCK DEP",
      "D MA",
      "c re",
      "p ar",
      "t h",
      "an ity",
      "Ġh ash",
      "Ġcheck s",
      "ack et",
      "a se",
      "y n",
      "in fo",
      "Ġin valid",
      "Ġt r",
      "ad v",
      "193 9",
      "I D",
      "R DMA",
      "c a",
      "d s",
      "e y",
      "l k",
      "n ode",
      "t o",
      "v l",
      "Ġ it",
      "le ss",
      "de d",
      "Ġp age",
      "st op",
      "an t",
      "ad er",
      "Ġn on",
      "let e",
      "Ġlo op",
      "cur s",
      "Ġannot ate",
      "Ġsc hed",
      "i b",
      "m c",
      "u b",
      "Ġ -",
      "Ġ G",
      "Ġ M",
      "Ġa r",
      "Ġc h",
      "Ġc or",
      "Ġs anity",
      "Ġp a",
      "Ġd isconnect",
      "Ġle n",
      "un nel",
      "Ġen sure",
      "ĠU se",
      "Ġip set",
      "lic y",
      "t y",
      "w n",
      "Ġs ize",
      "sc h",
      "Ġr cu",
      "Ġk ernel",
      "Ġg et",
      "Ġco mp",
      "f g",
      "i ssing",
      "m ent",
      "p e",
      "r c",
      "s o",
      "t ect",
      "Ġs ta",
      "Ġt ipc",
      "Ġm issing",
      "Ġre curs",
      "Ġb it",
      "Ġh ci",
      "co mp",
      "sk b",
      "ig ht",
      "que st",
      "ĠA dd",
      "Ġst ate",
      "Ġq u",
      "Ġcle anup",
      "Ġderef erence",
      "d u",
      "i ct",
      "l d",
      "s ctp",
      "Ġ zero",
      "Ġin ter",
      "ion s",
      "em pt",
      "im e",
      "Ġsock map",
      "ĠA void",
      "Ġfail ure",
      "Ġvalid ate",
      "f d",
      "p tr",
      "at ed",
      "ra m",
      "Ġo p",
      "Ġn ull",
      "ol d",
      "ĠP revent",
      "ializ ed",
      "f low",
      "r up",
      "Ġa re",
      "Ġb et",
      "Ġw ork",
      "tr y",
      "op y",
      "cp u",
      "if t",
      "Ġcon t",
      "ir q",
      "po int",
      "rp c",
      "rup t",
      "c heck",
      "d o",
      "f er",
      "h ash",
      "r tr",
      "Ġ O",
      "le ak",
      "at ch",
      "Ġp re",
      "ou ble",
      "Ġre t",
      "Ġd ouble",
      "Ġo ver",
      "ur n",
      "us er",
      "dev ice",
      "la b",
      "Ġsh ift",
      "Ġrecurs ion",
      "H ID",
      "f b",
      "q u",
      "s p",
      "s er",
      "s mc",
      "it ion",
      "Ġp revent",
      "al t",
      "Ġm ake",
      "ou n",
      "ct l",
      "Ġd uring",
      "Ġd is",
      "ms g",
      "R E",
      "U E",
      "b ind",
      "r t",
      "w it",
      "Ġ E",
      "Ġin st",
      "at tr",
      "Ġt a",
      "al ue",
      "ra ck",
      "il y",
      "Ġon ly",
      "Ġv alue",
      "Ġadd ress",
      "ut ex",
      "Ġal low",
      "Ġpro tect",
      "pro be",
      "ĠD on",
      "Ġref count",
      "rx rpc",
      "ant um",
      "wit ch",
      "2 5",
      "g th",
      "m ot",
      "r y",
      "in et",
      "Ġc e",
      "() :",
      "en d",
      "il l",
      "Ġk vm",
      "Ġlock ing",
      "ial ize",
      "of t",
      "Ġhandl er",
      "Ġstr uct",
      "wa ys",
      "we en",
      "cre ate",
      "Ġqu antum",
      "Ġbet ween",
      "Ġret urn",
      "mot e",
      "ry pt",
      "a in",
      "d p",
      "d ition",
      "o m",
      "s ize",
      "Ġin fo",
      "le ase",
      "an s",
      "an ge",
      "ro l",
      "Ġw rite",
      "ra struct",
      "Ġpo licy",
      "Ġlock dep",
      "Ġg en",
      "Ġhand le",
      "Ġbu g",
      "val ue",
      "Ġinf rastruct",
      "par se",
      "Ġce ll",
      "Ġinfrastruct ure",
      "5 4",
      "R e",
      "a ud",
      "l us",
      "n s",
      "p p",
      "s im",
      "x x",
      "Ġ ext",
      "re mote",
      "Ġc ra",
      "st a",
      "Ġre ject",
      "ge netlink",
      "Ġlock less",
      "Ġal ways",
      "Ġat tr",
      "Ġremo val",
      "Ġq rtr",
      "ee e",
      "Ġcor rect",
      "empt y",
      "oft irq",
      "Re vert",
      "a s",
      "c he",
      "f ou",
      "f ile",
      "k cov",
      "m ily",
      "o k",
      "s i",
      "s se",
      "s oftirq",
      "u st",
      "Ġ B",
      "Ġ K",
      "re d",
      "et h",
      "Ġt e",
      "se nd",
      "Ġm o",
      "an ce",
      "Ġre quest",
      "Ġb pf",
      "Ġd i",
      "ra w",
      "Ġh h",
      "mp tcp",
      "ation s",
      "Ġerror s",
      "Ġfa mily",
      "8021 54",
      "pa ce",
      "Ġnet dev",
      "Ġma c",
      "Ġup d",
      "yn c",
      "Ġlen gth",
      "Ġdis able",
      "' s",
      "A T",
      "E T",
      "a fs",
      "m an",
      "n on",
      "o ol",
      "t ing",
      "w q",
      "w rite",
      "Ġ l",
      "Ġ queue",
      "Ġa d",
      "Ġs p",
      "at man",
      "lo g",
      "Ġt c",
      "Ġp er",
      "Ġm er",
      "li mit",
      "Ġun b",
      "Ġus er",
      "la y",
      "ig n",
      "Ġco re",
      "ir t",
      "Ġca se",
      "wa it",
      "Ġuninit ialized",
      "we ight",
      "hh f",
      "Ġar ound",
      "Ġbit map",
      "Ġhh f",
      "a ve",
      "c ma",
      "c nt",
      "c fg",
      "e ad",
      "f in",
      "r q",
      "r on",
      "s r",
      "t p",
      "v t",
      "re c",
      "Ġf b",
      "Ġs ctp",
      "Ġs lab",
      "de x",
      "de ref",
      "Ġt unnel",
      "se c",
      "ce ss",
      "ou s",
      "ct ion",
      "Ġb r",
      "Ġr id",
      "all back",
      "Ġfa ult",
      "Ġpro per",
      "bu g",
      "Ġx frm",
      "Ġstr ict",
      "ĠC heck",
      "use d",
      "Ġse q",
      "lete ly",
      "ĠG UE",
      "Ġcomp letely",
      "comp at",
      "oun ded",
      "rypt o",
      "sse s",
      "Ġunb ounded",
      "C E",
      "c lose",
      "d rm",
      "f use",
      "i de",
      "k ey",
      "p acket",
      "t x",
      "Ġf la",
      "et ht",
      "Ġin et",
      "Ġa ss",
      "Ġc group",
      "le n",
      "de l",
      "Ġt imer",
      "he ader",
      "Ġm ore",
      "Ġi eee",
      "Ġo per",
      "ar d",
      "ut e",
      "init e",
      "Ġpro be",
      "ile d",
      "Ġbu f",
      "Ġca used",
      "Ġalloc ation",
      "Ġinf inite",
      "Ġinst ead",
      "aud io",
      "lus h",
      "Ġcra sh",
      "sta ging",
      "etht ool",
      "0 0",
      "R O",
      "a f",
      "a it",
      "b atman",
      "c le",
      "c ing",
      "d ata",
      "d isc",
      "i sh",
      "m b",
      "n e",
      "Ġ ll",
      "re am",
      "Ġf s",
      "Ġc re",
      "Ġc ount",
      "Ġs up",
      "Ġt cp",
      "Ġt ime",
      "Ġp acket",
      "Ġm ount",
      "ou r",
      "Ġi rq",
      "Ġh old",
      "id ge",
      "ip e",
      "co re",
      "Ġfa iled",
      "if y",
      "Ġcon dition",
      "Ġstr ing",
      "IN G",
      "Ġrt nl",
      "ri ver",
      "Ġpa ss",
      "Ġover flow",
      "6 4",
      "b lk",
      "c ap",
      "d ma",
      "h w",
      "i re",
      "m in",
      "s g",
      "t un",
      "u count",
      "Ġ V",
      "Ġ ->",
      "in dex",
      "Ġf allback",
      "on ding",
      "Ġc opy",
      "Ġu dp",
      "Ġm e",
      "Ġm utex",
      "Ġre g",
      "Ġb lk",
      "Ġw ait",
      "lock dep",
      "Ġcheck ing",
      "op s",
      "all y",
      "Ġus ing",
      "Ġrace s",
      "Ġco de",
      "SA N",
      "Ġst at",
      "Ġacce sses",
      "Ġen d",
      "ee p",
      "Ġcle ar",
      "Ġinit ialize",
      "Ġcan ce",
      "Ġhe ader",
      "Ġne w",
      "ĠI P",
      "fa ult",
      "ĠT C",
      "rc v",
      "ser t",
      "attr buf",
      "Ġta sk",
      "Ġgen er",
      "Ġmer ging",
      "ucount s",
      "A D",
      "b onding",
      "f or",
      "g h",
      "g ain",
      "h u",
      "k vm",
      "l b",
      "m q",
      "m ount",
      "t unnel",
      "v ing",
      "x mit",
      "Ġ empty",
      "Ġf lush",
      "er fs",
      "Ġin ode",
      "Ġa gain",
      "Ġs rc",
      "Ġs witch",
      "Ġt able",
      "Ġp ar",
      "Ġre st",
      "Ġb ound",
      "ro p",
      "Ġw h",
      "Ġo ss",
      "Ġto o",
      "Ġpo ll",
      "Ġk ey",
      "Ġun register",
      "ta sk",
      "ig h",
      "if i",
      "is erfs",
      "Ġcon nect",
      "ĠRe ad",
      "Ġq disc",
      "po ll",
      "Ġe le",
      "Ġread s",
      "pro c",
      "Ġbu gs",
      "Ġdevice s",
      "node s",
      "ib ute",
      "Ġch ange",
      "Ġop en",
      "Ġte st",
      "irt io",
      "N O",
      "O B",
      "P O",
      "T R",
      "c la",
      "c group",
      "e c",
      "g in",
      "i ous",
      "m d",
      "v b",
      "x sk",
      "Ġ link",
      "Ġ VM",
      "re nt",
      "Ġs y",
      "or d",
      "le d",
      "Ġp art",
      "Ġre gister",
      "Ġd u",
      "Ġn l",
      "Ġde bug",
      "con t",
      "Ġnet ns",
      "Ġrt netlink",
      "Ġfile s",
      "ON CE",
      "Ġhe ld",
      "Ġth is",
      "fa ce",
      "add r",
      "Ġop s",
      "Ġcont rol",
      "Ġattr ibute",
      ") _",
      "A N",
      "b d",
      "c rypto",
      "o ve",
      "p r",
      "r ation",
      "s ub",
      "v ide",
      "w ar",
      "Ġ ro",
      "re lease",
      "re iserfs",
      "Ġf ib",
      "Ġa f",
      "Ġc al",
      "Ġc fg",
      "Ġs il",
      "lo ad",
      "Ġt y",
      "Ġp cm",
      "net rom",
      "se nt",
      "Ġu nd",
      "Ġm ode",
      "Ġb ad",
      "en try",
      "Ġd vb",
      "ra cing",
      "Ġi c",
      "Ġo pt",
      "io ctl",
      "Ġv m",
      "Ġr dma",
      "op t",
      "Ġleak s",
      "Ġus age",
      "ver y",
      "cu l",
      "Ġpro g",
      "if name",
      "pa g",
      "Ġset ting",
      "Ġdeadlock s",
      "ress ion",
      "ys fs",
      "ca st",
      "vl an",
      "Ġinter rupt",
      "Ġcont ext",
      "Ġprotect ion",
      "fin ish",
      "Ġbr idge",
      "Ġproper ly",
      "Ġbuf fer",
      "mb ol",
      "Ġwh ile",
      "Ġsy mbol",
      "Ġsil ly",
      "Ġund er",
      "E R",
      "a ch",
      "b er",
      "c s",
      "c opy",
      "f q",
      "f ix",
      "h old",
      "l ing",
      "o vl",
      "p age",
      "p ic",
      "t imer",
      "t ty",
      "v s",
      "Ġ '",
      "Ġ em",
      "Ġ eth",
      "Ġf ull",
      "Ġin t",
      "Ġin vo",
      "Ġa c",
      "on e",
      "Ġs er",
      "Ġs ure",
      "Ġs ile",
      "Ġs end",
      "or s",
      "net dev",
      "st ed",
      "Ġre set",
      "Ġre vert",
      "Ġb c",
      "Ġb ro",
      "en ding",
      "ra y",
      "Ġh id",
      "tr ans",
      "ma ck",
      "ex p",
      "op en",
      "mp le",
      "mp it",
      "un register",
      "la ce",
      "Ġwith out",
      "Ġco mm",
      "get lb",
      "con nect",
      "Ġe ar",
      "Ġe vent",
      "gist ration",
      "pro cess",
      "vm sg",
      "ĠD o",
      "Ġfail s",
      "rou gh",
      "Ġinit ializ",
      "Ġref erence",
      "Ġth rough",
      "ĠWARN ING",
      "ca che",
      "Ġcor rupt",
      "du le",
      "Ġinter face",
      "ĠO OB",
      "Ġdi rect",
      "Ġfla g",
      "our ce",
      "Ġoverflow s",
      "Ġend point",
      "D P",
      "I T",
      "L IN",
      "R B",
      "_ {",
      "d i",
      "e vent",
      "f cnt",
      "g er",
      "h c",
      "i es",
      "i ally",
      "k en",
      "l an",
      "m on",
      "o g",
      "s q",
      "t ime",
      "Ġ &",
      "Ġ X",
      "Ġ raw",
      "Ġ limit",
      "Ġ lay",
      "in ode",
      "re quest",
      "Ġf i",
      "et ect",
      "Ġin put",
      "Ġa b",
      "Ġa ll",
      "Ġs ub",
      "de struct",
      "it er",
      "at ing",
      "Ġt rack",
      "Ġp e",
      "Ġp ut",
      "st at",
      "Ġd ue",
      "Ġd rop",
      "lock ing",
      "ss ue",
      "Ġi g",
      "Ġi ssue",
      "Ġn o",
      "Ġde let",
      "em ove",
      "ex it",
      "ĠR E",
      "ĠR emove",
      "sh mem",
      "ch ron",
      "loc al",
      "ia g",
      "ĠU DP",
      "po licy",
      "Ġex it",
      "ri v",
      "Ġsocket s",
      "Ġnf t",
      "yn chron",
      "rt imer",
      "as an",
      "Ġupd ate",
      "cle ar",
      "Ġtime out",
      "Ġbound s",
      "cla ss",
      "Ġpart ially",
      "Ġty pe",
      "Ġbro ken",
      "Ġinitializ ation",
      "fcnt l",
      "5 00",
      "F S",
      "I n",
      "S I",
      "S T",
      "a x",
      "b it",
      "b tr",
      "b fs",
      "b ject",
      "c b",
      "g re",
      "h sr",
      "k e",
      "l per",
      "n o",
      "p h",
      "p ed",
      "t race",
      "u cma",
      "v fs",
      "Ġ 0",
      "Ġ L",
      "in sert",
      "re ak",
      "Ġf ilter",
      "Ġin c",
      "Ġc tx",
      "Ġs q",
      "or ation",
      "at or",
      "Ġt ree",
      "Ġt race",
      "Ġt un",
      "net device",
      "Ġre c",
      "Ġre s",
      "Ġre port",
      "Ġre lease",
      "ct x",
      "en able",
      "ss age",
      "Ġi d",
      "Ġn ame",
      "Ġde l",
      "Ġh ol",
      "ar ge",
      "ar gin",
      "ot a",
      "il d",
      "ĠR T",
      "nt rack",
      "Ġr x",
      "Ġr ight",
      "Ġk free",
      "iz ed",
      "up d",
      "out e",
      "lin e",
      "if ic",
      "Ġsk ip",
      "ĠA l",
      "Ġcall s",
      "Ġst ream",
      "Ġen try",
      "Ġx t",
      "ĠU RB",
      "po sure",
      "Ġe very",
      "Ġip v",
      "Ġrt l",
      "Ġex posure",
      "Ġth at",
      "Ġma x",
      "Ġtr ans",
      "Ġwork er",
      "do wn",
      "om ic",
      "Ġfb con",
      "Ġoper ation",
      "hw sim",
      "Ġreg ression",
      "Ġgener al",
      "Ġagain st",
      "Ġrest oration",
      "Ġeth nl",
      "Ġsile nce",
      "mple ment",
      "In put",
      "btr fs",
      "1 2",
      "8 1",
      ": :",
      "C M",
      "E D",
      "E N",
      "F O",
      "F P",
      "N L",
      "Q PO",
      "S ET",
      "T U",
      "a re",
      "d river",
      "d iag",
      "e ve",
      "g p",
      "g ic",
      "k asan",
      "l ving",
      "m utex",
      "n f",
      "n bd",
      "p re",
      "p ath",
      "p ipe",
      "s ing",
      "s ync",
      "u x",
      "u le",
      "u ard",
      "v c",
      "Ġ z",
      "Ġ netlink",
      "Ġ IN",
      "Ġ ord",
      "Ġf ra",
      "Ġin to",
      "Ġc ls",
      "Ġs nd",
      "Ġs ch",
      "Ġs pace",
      "or rect",
      "() .",
      "lo op",
      "Ġp r",
      "Ġp ending",
      "al k",
      "al ance",
      "se q",
      "st ate",
      "st art",
      "ce ll",
      "Ġm ult",
      "an sit",
      "Ġre p",
      "Ġre str",
      "Ġre gistration",
      "Ġb lock",
      "Ġb ack",
      "Ġb og",
      "Ġd river",
      "ad get",
      "Ġde fer",
      "Ġh w",
      "Ġh sr",
      "ar k",
      "ot p",
      "ip so",
      "sc r",
      "sc si",
      "Ġv b",
      "Ġv ar",
      "Ġk ill",
      "Ġk eep",
      "Ġun lock",
      "Ġmem leak",
      "Ġlock s",
      "Ġg sp",
      "un c",
      "Ġus ers",
      "Ġal so",
      "Ġpro pag",
      "Ġfree ing",
      "ap i",
      "Ġcall back",
      "Ġacce pt",
      "Ġat h",
      "ĠP ut",
      "ĠS QPO",
      "Ġio ctl",
      "wa re",
      "Ġvalid ation",
      "Ġhash table",
      "Ġtr ansit",
      "ĠM ake",
      "ty pe",
      "Ġpre sent",
      "fb mem",
      "Ġta g",
      "Ġrefcount ing",
      "Ġext ra",
      "Ġcorrect ly",
      "send msg",
      "Ġmo dule",
      "Ġrequest s",
      "Ġupd ated",
      "Ġsp l",
      "ign al",
      "Ġsup er",
      "Ġsup port",
      "Ġpacket s",
      "Ġme ssage",
      "hu getlb",
      "Ġele m",
      "cont rol",
      "Ġcal cul",
      "Ġic mp",
      "Ġinvo lving",
      "Ġbc sp",
      "Ġcorrupt ion",
      "LIN E",
      "Ġlay er",
      "destruct or",
      "Ġhol ding",
      "upd ate",
      "Ġord er",
      "Ġrestr ict",
      "Ġbog us",
      "Ġgsp ca",
      "Ġusers pace",
      "ĠSQPO LL",
      "Ġtransit ion",
      "A F",
      "B U",
      "C P",
      "D I",
      "I C",
      "P RO",
      "U N",
      "a ct",
      "a il",
      "c y",
      "d isconnect",
      "f ig",
      "g ram",
      "h o",
      "h y",
      "h id",
      "i se",
      "o bject",
      "p art",
      "r ds",
      "r oute",
      "s mack",
      "s ized",
      "u cce",
      "v irtio",
      "w atch",
      "Ġ 1",
      "Ġ y",
      "Ġ la",
      "Ġ local",
      "Ġ line",
      "re q",
      "Ġf un",
      "Ġa x",
      "Ġa ct",
      "Ġa ut",
      "Ġa rp",
      "Ġa shmem",
      "Ġs l",
      "Ġs us",
      "Ġs ysfs",
      "Ġs ucce",
      "lo b",
      "Ġt ak",
      "Ġt ty",
      "Ġp ad",
      "Ġp ipe",
      "Ġfix ed",
      "st ore",
      "st ream",
      "Ġm is",
      "Ġm cast",
      "ou ch",
      "Ġd etect",
      "lock s",
      "ra p",
      "Ġi mplement",
      "Ġo ops",
      "Ġn um",
      "Ġh ave",
      "ip t",
      "Ġv irtio",
      "Ġun ix",
      "Ġadd ing",
      "ta b",
      "Ġg ue",
      "un lock",
      "fo wn",
      "set up",
      "Ġpro c",
      "ext ra",
      "Ġcon cur",
      "Ġcon ntrack",
      "Ġst art",
      "Ġat omic",
      "ĠU AF",
      "per f",
      "ĠP ro",
      "Ġusb hid",
      "pro g",
      "ĠS M",
      "Ġca che",
      "um e",
      "let ion",
      "Ġj ust",
      "Ġwarning s",
      "Ġex ec",
      "Ġne igh",
      "Ġne sted",
      "ri or",
      "Ġas ix",
      "th read",
      "info leak",
      "Ġcomp letion",
      "Ġsta ck",
      "Ġpre empt",
      "oun ter",
      "ĠE x",
      "Ġvalue s",
      "file s",
      "write back",
      "Ġtc f",
      "rec vmsg",
      "Ġass ume",
      "Ġoper ations",
      "Ġll sec",
      "Ġcre ation",
      "cap s",
      "ĠV T",
      "ĠTC A",
      "ĠTC P",
      "Ġopen vs",
      "ĠVM X",
      "Ġdebug fs",
      "pr io",
      "pic ious",
      "Ġcomm it",
      "Ġab out",
      "stat s",
      "ĠRE AD",
      "ĠRT NL",
      "ĠAl low",
      "scr ipt",
      "Ġpropag ate",
      "PRO T",
      "Ġsus picious",
      "Ġopenvs witch",
      "2 8",
      "3 2",
      "3 64",
      "A SAN",
      "I G",
      "L A",
      "L I",
      "L O",
      "L ite",
      "O M",
      "P F",
      "U P",
      "_ [",
      "a c",
      "a st",
      "b alloc",
      "c g",
      "d c",
      "d gram",
      "f at",
      "f ers",
      "g fs",
      "g ment",
      "g uard",
      "h d",
      "h and",
      "i e",
      "k t",
      "k ms",
      "k ill",
      "l ate",
      "m i",
      "n g",
      "n al",
      "n ore",
      "o w",
      "o ok",
      "p kt",
      "r ing",
      "s up",
      "s ist",
      "u ed",
      "u art",
      "v r",
      "v kms",
      "w ire",
      "y o",
      "Ġ *",
      "Ġ H",
      "Ġ W",
      "Ġ li",
      "re s",
      "Ġf in",
      "Ġin sert",
      "ix er",
      "Ġc rypto",
      "Ġs i",
      "Ġs m",
      "Ġs ource",
      "Ġs ynchron",
      "Ġs ignal",
      "de lete",
      "lo t",
      "Ġt p",
      "Ġt t",
      "Ġt x",
      "Ġt racing",
      "Ġp ull",
      "Ġp riv",
      "al g",
      "st em",
      "Ġm eth",
      "Ġm argin",
      "Ġm balloc",
      "Ġre q",
      "Ġb ind",
      "en ter",
      "Ġd ma",
      "Ġw ron",
      "ss ion",
      "ra ms",
      "Ġi b",
      "Ġn api",
      "Ġde lay",
      "ed ge",
      "Ġh u",
      "Ġh ook",
      "ar y",
      "ip hy",
      "ve c",
      "Ġof f",
      "Ġv t",
      "Ġr ing",
      "Ġr io",
      "ll c",
      "li er",
      "Ġun link",
      "Ġadd r",
      "co de",
      "ure x",
      "un ix",
      "im um",
      "ia ble",
      "Ġpro ce",
      "mo yo",
      "que ued",
      "med i",
      "ĠA n",
      "usb ip",
      "Ġnot ific",
      "Ġe b",
      "Ġis otp",
      "ĠS cell",
      "pa re",
      "Ġca ref",
      "um ent",
      "block ing",
      "Ġset up",
      "Ġcle an",
      "alloc ate",
      "Ġalloc ate",
      "ipv s",
      "Ġhe lper",
      "Ġma gic",
      "Ġse par",
      "sock opt",
      "ud p",
      "work er",
      "ĠT X",
      "Ġtr ig",
      "to moyo",
      "vl v",
      "Ġar g",
      "Ġar ray",
      "pe c",
      "du ce",
      "Ġzero copy",
      "Ġwork queue",
      "qu ir",
      "bind er",
      "Ġattr s",
      "ĠK eep",
      "ĠK ASAN",
      "Ġmo ve",
      "Ġdisable d",
      "AT E",
      "Ġad ded",
      "Ġtc index",
      "rec v",
      "Ġtunnel s",
      "Ġfla gs",
      "ne w",
      "ne igh",
      "Ġll c",
      "Ġirq s",
      "min ix",
      "Ġme sh",
      "Ġcance l",
      "Ġcance ll",
      "fault fd",
      "hu ge",
      "ifi ed",
      "Ġdu mpit",
      "vide o",
      "Ġopt ion",
      "Ġear lier",
      "Ġdirect ory",
      "di sk",
      "hc d",
      "Ġinc orrect",
      "Ġreport s",
      "Ġfra gs",
      "Ġhw sim",
      "Ġvar iable",
      "Ġspl at",
      "Ġcalcul ation",
      "Ġy urex",
      "Ġpreempt ion",
      "sup er",
      "sist ent",
      "wire guard",
      "Ġmeth o",
      "Ġwron g",
      "Ġsepar ate",
      "\" ->",
      "7 2",
      "7 12",
      "8 81",
      "8 712",
      "B SAN",
      "E X",
      "I OC",
      "N E",
      "N FS",
      "a b",
      "a ction",
      "b y",
      "b io",
      "c li",
      "c rypt",
      "c ipso",
      "d m",
      "d ic",
      "e vt",
      "e poll",
      "f y",
      "f ra",
      "f ork",
      "f ram",
      "g en",
      "g em",
      "g tp",
      "h er",
      "h rtimer",
      "i rect",
      "j ust",
      "l p",
      "l r",
      "l or",
      "m at",
      "m ou",
      "m atch",
      "p u",
      "p lic",
      "q rtr",
      "r ate",
      "r un",
      "s b",
      "s n",
      "s ion",
      "s ig",
      "s lab",
      "s qu",
      "s ysfs",
      "t c",
      "t e",
      "t rack",
      "t racing",
      "t vlv",
      "w ake",
      "w ifi",
      "y per",
      "y stem",
      "Ġ Q",
      "Ġ MA",
      "Ġ genetlink",
      "in lock",
      "re ce",
      "re en",
      "re set",
      "re mo",
      "Ġf q",
      "Ġf low",
      "Ġf use",
      "er t",
      "Ġc ss",
      "Ġs it",
      "Ġs el",
      "le as",
      "le ction",
      "de bug",
      "Ġt ake",
      "Ġp id",
      "Ġp ort",
      "Ġp lace",
      "al f",
      "Ġm in",
      "Ġm map",
      "Ġm ixer",
      "an g",
      "Ġre leas",
      "ct r",
      "Ġb io",
      "Ġb ase",
      "Ġb reak",
      "Ġd st",
      "Ġw alk",
      "Ġo om",
      "Ġn ext",
      "Ġn do",
      "Ġde struct",
      "Ġde lete",
      "Ġh so",
      "Ġh rtimer",
      "Ġh alf",
      "ar ing",
      "em p",
      "tr unc",
      "ve l",
      "Ġv er",
      "ge red",
      "Ġle ave",
      "Ġr ds",
      "Ġk cm",
      "li fy",
      "Ġun it",
      "mp lify",
      "dev link",
      "ta prio",
      "ch ange",
      "Ġg so",
      "Ġg adget",
      "lin ux",
      "is ize",
      "is able",
      "Ġcall ing",
      "rm ware",
      "Ġan oth",
      "Ġst op",
      "Ġst all",
      "ĠRe vert",
      "con n",
      "con dition",
      "VM X",
      "ash fs",
      "ĠS C",
      "ht c",
      "Ġio war",
      "ĠC ON",
      "IN D",
      "IN FO",
      "Ġlo ad",
      "Ġlo ok",
      "mem ory",
      "Ġinit ialized",
      "mac vlan",
      "not ate",
      "Ġpointer s",
      "Ġhe ad",
      "Ġth read",
      "ĠI F",
      "Ġup on",
      "sock et",
      "ud f",
      "work queue",
      "Ġmap ped",
      "Ġit er",
      "Ġsched ule",
      "ĠG FP",
      "Ġch ain",
      "Ġcomp at",
      "Ġqu ota",
      "du mp",
      "du mpit",
      "point s",
      "user faultfd",
      "fb con",
      "qu ire",
      "RE SI",
      "ĠB H",
      "Ġmo d",
      "Ġmac vlan",
      "Ġad just",
      "Ġsp inlock",
      "Ġbuf fers",
      "af e",
      "Ġcre ate",
      "Ġmount ing",
      "AD D",
      "Ġflush ing",
      "Ġpar sing",
      "Ġunregister ing",
      "cont ext",
      "pr int",
      "sub mit",
      "opt ions",
      "Ġac count",
      "Ġser ial",
      "Ġhid dev",
      "Ġear ly",
      "Ġendpoint s",
      "Ġfi el",
      "Ġtrack er",
      "Ġig nore",
      "trace point",
      "EN T",
      "driver s",
      "pre pare",
      "Ġz r",
      "Ġmodule s",
      "Ġsuper block",
      "BU G",
      "ho st",
      "smack fs",
      "Ġaut o",
      "lob al",
      "Ġtak en",
      "Ġnum ber",
      "Ġconcur rent",
      "Ġdelay ed",
      "Ġproce ssing",
      "ĠAn notate",
      "Ġeb tables",
      "Ġmagic mou",
      "Ġarg ument",
      "Ġcancell ation",
      "cli ent",
      "fram e",
      "plic it",
      "squ ashfs",
      "track er",
      "ĠMA C",
      "rece ive",
      "Ġflow table",
      "Ġreleas ing",
      "Ġanoth er",
      "Ġiowar rior",
      "ĠCON F",
      "RESI Z",
      "Ġmagicmou se",
      "A r",
      "F C",
      "F ix",
      "G A",
      "G E",
      "G M",
      "G O",
      "H A",
      "I O",
      "M U",
      "O L",
      "O R",
      "P I",
      "R M",
      "R R",
      "S E",
      "S H",
      "S ize",
      "W OR",
      "Y N",
      "a v",
      "a con",
      "b l",
      "b r",
      "b id",
      "b ase",
      "b atch",
      "c ss",
      "c hed",
      "d q",
      "d st",
      "d up",
      "d ir",
      "e p",
      "e ys",
      "e ach",
      "e ger",
      "f i",
      "f am",
      "f ill",
      "g a",
      "h ci",
      "i v",
      "i eee",
      "i red",
      "k ernel",
      "k object",
      "l ip",
      "m e",
      "m t",
      "m id",
      "n fs",
      "n ly",
      "n ext",
      "n try",
      "o wn",
      "p i",
      "p ing",
      "p an",
      "p en",
      "p es",
      "p riv",
      "r g",
      "r w",
      "r ad",
      "r tab",
      "s he",
      "s pace",
      "s afe",
      "s lip",
      "t f",
      "t u",
      "t es",
      "v ice",
      "v sock",
      "w mem",
      "w ind",
      "x dp",
      "Ġ low",
      "in k",
      "in quir",
      "re ed",
      "Ġf ir",
      "Ġf ds",
      "Ġf ram",
      "Ġf reed",
      "er min",
      "et s",
      "Ġin con",
      "Ġa ud",
      "Ġa ction",
      "on d",
      "Ġc ur",
      "Ġc set",
      "Ġc ap",
      "Ġc md",
      "Ġc ounter",
      "Ġc dc",
      "Ġs b",
      "Ġs mc",
      "Ġs ync",
      "or m",
      "le x",
      "le vel",
      "it ors",
      "at ive",
      "Ġt w",
      "Ġt im",
      "Ġt ermin",
      "Ġp ref",
      "Ġp lu",
      "Ġp vr",
      "al low",
      "al ign",
      "Ġfix es",
      "st map",
      "ce l",
      "ce usb",
      "Ġm d",
      "Ġm on",
      "Ġm nt",
      "Ġm atch",
      "Ġm tu",
      "Ġm ceusb",
      "an o",
      "Ġre d",
      "Ġre fs",
      "Ġre name",
      "ct ls",
      "ct ions",
      "Ġb at",
      "Ġb cm",
      "Ġb ond",
      "en sion",
      "Ġd ang",
      "ro se",
      "ro id",
      "Ġw usb",
      "Ġw ake",
      "Ġw lan",
      "Ġw iphy",
      "lock ed",
      "lock less",
      "ss f",
      "Ġi h",
      "Ġi ma",
      "Ġn bd",
      "Ġde stroy",
      "Ġde fault",
      "Ġde script",
      "Ġde dic",
      "Ġh yper",
      "ar ds",
      "em ent",
      "Ġfor war",
      "Ġto get",
      "tr ust",
      "tr ies",
      "ma in",
      "io d",
      "sc reen",
      "ex ec",
      "Ġof fs",
      "Ġv c",
      "Ġv hci",
      "Ġr ad",
      "ll back",
      "Ġk eys",
      "us h",
      "li b",
      "li ce",
      "Ġun trust",
      "co m",
      "co mm",
      "Ġlock ed",
      "Ġg ra",
      "Ġg fs",
      "Ġg pf",
      "Ġg lobal",
      "im ize",
      "Ġfa stmap",
      "Ġand roid",
      "Ġpro cess",
      "is ion",
      "alid ate",
      "ĠA ss",
      "Ġcon st",
      "Ġcon fig",
      "ap p",
      "ol ve",
      "Ġbe h",
      "Ġbe acon",
      "bu ild",
      "Ġen tries",
      "ic s",
      "ic ast",
      "Ġx sk",
      "ĠU BSAN",
      "mm y",
      "Ġe ach",
      "Ġread ing",
      "Ġusb ip",
      "lu de",
      "ul ation",
      "ĠS et",
      "Ġca if",
      "Ġip ip",
      "ull y",
      "Ġdo es",
      "can cel",
      "inter rupt",
      "ite ch",
      "Ġio ctls",
      "ĠC o",
      "ĠC on",
      "ĠC le",
      "Ġaccess ing",
      "mem cg",
      "Ġvalid ity",
      "Ġref cnt",
      "Ġskb s",
      "DE V",
      "back log",
      "buf f",
      "Ġsh aring",
      "valid ate",
      "Ġex c",
      "Ġne ed",
      "ĠI D",
      "ĠI n",
      "Ġse lection",
      "Ġannot ation",
      "Ġas ync",
      "fa il",
      "Ġlist ify",
      "add ress",
      "cre ment",
      "Ġtr y",
      "adv ance",
      "Ġpage s",
      "ĠM ark",
      "Ġch a",
      "Ġch an",
      "Ġpa ram",
      "pe er",
      "Ġsta le",
      "Ġrecurs ive",
      "Ġbit set",
      "ld isc",
      "check ed",
      "hash limit",
      "ĠO GM",
      "ĠO nly",
      "Ġpre c",
      "Ġover sized",
      "fb dev",
      "qu ota",
      "rt c",
      "ĠE RR",
      "Ġinst all",
      "Ġprotect ed",
      "Ġkvm alloc",
      "Ġinfo leak",
      "aud it",
      "pp p",
      "Ġcra she",
      "ĠB PF",
      "Ġdi vide",
      "AT TR",
      "Ġl on",
      "Ġl arge",
      "Ġper cpu",
      "Ġper iod",
      "Ġmer ge",
      "Ġass ign",
      "Ġass ert",
      "cle anup",
      "ĠV alidate",
      "Ġcopy ing",
      "Ġreg ul",
      "Ġstat ement",
      "ĠIP SET",
      "Ġtask s",
      "Ġele ment",
      "PO L",
      "Ġdu mmy",
      "Ġnl msg",
      "Ġfiles ystem",
      "AN GE",
      "Ġro se",
      "Ġro ot",
      "Ġcal led",
      "pag ed",
      "Ġ' _",
      "Ġint eger",
      "netdev sim",
      "Ġhid raw",
      "exp and",
      "Ġdirect ions",
      "ĠX Ar",
      "Ġraw mid",
      "Ġfi rmware",
      "Ġpe ak",
      "Ġig mp",
      "Ġdelet ing",
      "Ġrec ord",
      "Ġrec vmsg",
      "are r",
      "nf c",
      "ĠIN IT",
      "Ġmult icast",
      "Ġrep lace",
      "LINE NO",
      "CP U",
      "Ġfun ctions",
      "Ġsucce ssf",
      "ĠPro tect",
      "ĠSM C",
      "Ġexec ve",
      "ĠEx plicit",
      "PROT O",
      "mi ssion",
      "ĠW rite",
      "Ġli ve",
      "Ġfin ish",
      "Ġinsert ions",
      "Ġsi mplify",
      "Ġoff load",
      "Ġcaref ul",
      "Ġtrig gered",
      "huge paged",
      "Ġmetho ds",
      "ab ling",
      "lr u",
      "debug fs",
      "Ġnext h",
      "emp late",
      "trunc ate",
      "Ġver ify",
      "Ġfiel ds",
      "ĠCONF IG",
      "WOR K",
      "br idge",
      "fam ily",
      "inquir y",
      "Ġfir st",
      "Ġfram es",
      "Ġincon sistent",
      "Ġaud it",
      "Ġcur rent",
      "Ġplu gin",
      "Ġdang ling",
      "Ġwusb core",
      "Ġdedic ated",
      "Ġforwar ding",
      "Ġtoget her",
      "Ġuntrust ed",
      "Ġparam et",
      "Ġcrashe s",
      "ĠXAr ray",
      "Ġrawmid i",
      "ĠExplicit ly",
      "* ()",
      "0 6",
      "1 1",
      "7 8",
      "= =",
      "A G",
      "A I",
      "A M",
      "C SAN",
      "C LO",
      "D C",
      "F Q",
      "F AI",
      "G RO",
      "G FP",
      "H P",
      "I P",
      "K IND",
      "L s",
      "M P",
      "N FC",
      "P T",
      "P TR",
      "Q U",
      "Q UE",
      "R Q",
      "R CU",
      "S O",
      "S ta",
      "S mack",
      "T Ls",
      "V E",
      "W A",
      "W B",
      "a ss",
      "a ut",
      "a med",
      "a red",
      "b s",
      "b ro",
      "b ar",
      "b us",
      "c op",
      "c ounter",
      "d b",
      "d isable",
      "e v",
      "e le",
      "f ere",
      "f ind",
      "f lush",
      "f lex",
      "g al",
      "g ro",
      "g ra",
      "g up",
      "g ative",
      "h if",
      "j o",
      "k hugepaged",
      "l c",
      "l le",
      "l ated",
      "l arge",
      "l wifi",
      "m r",
      "m u",
      "m et",
      "m lock",
      "m ig",
      "m map",
      "m isc",
      "m argin",
      "m medi",
      "n ull",
      "n cy",
      "o c",
      "o s",
      "o fs",
      "o llback",
      "p ad",
      "p ia",
      "p ending",
      "r io",
      "r si",
      "s w",
      "s al",
      "s nd",
      "s rcu",
      "s pa",
      "s um",
      "s fq",
      "s lot",
      "t ree",
      "t class",
      "t ouch",
      "t emplate",
      "u al",
      "u nt",
      "u mp",
      "v d",
      "v ator",
      "v host",
      "w ith",
      "w ext",
      "w alk",
      "w dm",
      "x fs",
      "y load",
      "z e",
      "} ()",
      "Ġ J",
      "Ġ or",
      "Ġ ra",
      "Ġ err",
      "Ġ KVM",
      "Ġ 500",
      "Ġ ==",
      "re ser",
      "re size",
      "re gistration",
      "Ġf at",
      "Ġf allocate",
      "er y",
      "et ach",
      "Ġin dex",
      "Ġa io",
      "Ġa cp",
      "Ġa pp",
      "Ġa pi",
      "on t",
      "on ly",
      "Ġc t",
      "Ġc la",
      "Ġc pia",
      "Ġc sum",
      "Ġs ing",
      "Ġs lot",
      "Ġs pec",
      "() \"",
      "de fin",
      "it or",
      "it ed",
      "it ialize",
      "at ory",
      "Ġt ra",
      "Ġt ap",
      "Ġt ouch",
      "Ġp in",
      "Ġp an",
      "Ġp ur",
      "Ġp ub",
      "Ġp pp",
      "Ġp neigh",
      "Ġp ush",
      "al ize",
      "he ad",
      "he lper",
      "net em",
      "se m",
      "se linux",
      "Ġu vc",
      "Ġu rg",
      "st im",
      "ce ph",
      "Ġm al",
      "Ġm pt",
      "Ġm cb",
      "an ot",
      "ou ld",
      "ou gh",
      "Ġre co",
      "Ġre pa",
      "Ġre work",
      "Ġre cla",
      "Ġre lated",
      "Ġb us",
      "Ġb dev",
      "Ġb atman",
      "Ġb alance",
      "en ce",
      "en ded",
      "en cap",
      "Ġd up",
      "Ġd rm",
      "Ġd isc",
      "Ġd yn",
      "ro duce",
      "Ġw e",
      "Ġw q",
      "ter n",
      "ad ing",
      "ad cast",
      "ĠF or",
      "ss i",
      "Ġi lle",
      "Ġo vl",
      "Ġo wn",
      "Ġn fs",
      "Ġn la",
      "Ġn ode",
      "Ġn VMX",
      "Ġn amed",
      "Ġde comp",
      "Ġde ntry",
      "Ġh ard",
      "ar p",
      "ar down",
      "id le",
      "ue vent",
      "tr ig",
      "ur ation",
      "ma sk",
      "Ġon e",
      "Ġon ce",
      "Ġv s",
      "Ġv ia",
      "Ġv irt",
      "Ġv ide",
      "Ġv lan",
      "Ġv ga",
      "Ġv iv",
      "Ġv CPU",
      "ĠR io",
      "ĠR ollback",
      "Ġpo lic",
      "nt fs",
      "nt ly",
      "Ġr w",
      "Ġr un",
      "Ġr unt",
      "Ġk a",
      "Ġun bound",
      "Ġun ified",
      "iz ation",
      "mp ro",
      "race s",
      "Ġmem ber",
      "Ġmem policy",
      "sh ow",
      "ut down",
      "Ġleak ing",
      "ta il",
      "ch an",
      "ch ar",
      "ch ain",
      "Ġg race",
      "Ġg tp",
      "and le",
      "im it",
      "set s",
      "ver sal",
      "la st",
      "link watch",
      "Ġsock ptr",
      "if e",
      "ext ension",
      "mo re",
      "mo dule",
      "ĠA cce",
      "Ġco medi",
      "Ġco lor",
      "Ġcon so",
      "am ic",
      "ĠN HA",
      "Ġbe ing",
      "LL OC",
      "low at",
      "Ġen able",
      "Ġen abling",
      "Ġen ough",
      "Ġremo ving",
      "Ġx attr",
      "Ġnot sent",
      "ĠRe set",
      "con f",
      "con fig",
      "ĠU SB",
      "ĠU WB",
      "po st",
      "po inter",
      "ĠP M",
      "ĠP CM",
      "ĠS OCK",
      "pa ram",
      "pa rams",
      "Ġca ched",
      "ĠD e",
      "ĠD rop",
      "ĠD etect",
      "Ġdo wn",
      "Ġdo main",
      "OC OL",
      "OC TLs",
      "Ġio v",
      "ĠC R",
      "Ġfail ing",
      "Ġj our",
      "Ġj ited",
      "Ġalloc ations",
      "Ġalloc ating",
      "Ġalloc ator",
      "be arer",
      "Ġlo g",
      "mem policy",
      "mem bar",
      "not ify",
      "Ġby tes",
      "lic ate",
      "Ġnet lb",
      "Ġinf orm",
      "Ġex p",
      "Ġne gative",
      "ri er",
      "ĠI RQ",
      "ĠI OCTLs",
      "Ġse g",
      "Ġse gment",
      "Ġas ynchron",
      "ĠT x",
      "ĠT HP",
      "cre ase",
      "adv ise",
      "Ġit s",
      "Ġpage sets",
      "ant s",
      "ub i",
      "ĠG RO",
      "ĠM S",
      "ĠM TU",
      "ĠM POL",
      "Ġch ild",
      "Ġpa rent",
      "Ġpa rams",
      "Ġpa yload",
      "Ġdisconnect ion",
      "Ġsta b",
      "comp lete",
      "Ġinter nal",
      "lab el",
      "qu ired",
      "RE D",
      "RE Q",
      "rt netlink",
      "rt lwifi",
      "Ġinst ance",
      "end point",
      "Ġstruct ure",
      "Ġgen eve",
      "lus ive",
      "xx x",
      "ĠK CSAN",
      "red irect",
      "Ġmac ro",
      "AT OM",
      "Ġl ate",
      "Ġsp lice",
      "Ġper net",
      "sec comp",
      "Ġfault y",
      "Ġstrict er",
      "packet s",
      "len gth",
      "del rec",
      "ne sted",
      "Ġll cp",
      "Ġfs mount",
      "Ġwait ing",
      "Ġwait queue",
      "Ġstat s",
      "Ġstat ic",
      "Ġgener ation",
      "for m",
      "for ce",
      "Ġpar se",
      "Ġpar ano",
      "Ġrest ore",
      "task s",
      "NO FAI",
      "TR A",
      "md io",
      "Ġlink watch",
      "Ġdu mp",
      "AN TU",
      "war n",
      "Ġopt ions",
      "Ġopt imize",
      "Ġinterrupt s",
      "Ġunder flow",
      "page s",
      "Ġem atch",
      "Ġem ulation",
      "Ġfull y",
      "Ġint roduce",
      "Ġinvo ke",
      "Ġac quire",
      "Ġsend msg",
      "exp mask",
      "Ġcomm and",
      "Ġevent s",
      "ource s",
      "mon itors",
      "sq e",
      "time out",
      "Ġinput s",
      "Ġab ort",
      "Ġsub prog",
      "Ġissue s",
      "Ġno ise",
      "Ġdelet ion",
      "Ġdelet ed",
      "Ġinc lude",
      "Ġsq d",
      "Ġsq o",
      "Ġtrace points",
      "Ġtun ing",
      "Ġres ol",
      "Ġres ources",
      "Ġname s",
      "Ġrx rpc",
      "ĠURB s",
      "Ġmax imum",
      "Ġtrans port",
      "Ġtrans fer",
      "gp u",
      "ĠIN ET",
      "Ġspace s",
      "Ġpr int",
      "Ġmult ip",
      "hugetlb fs",
      "DI AG",
      "Ġla st",
      "Ġfun ction",
      "Ġarp tables",
      "Ġsl hc",
      "Ġsucce ed",
      "Ġpad ata",
      "Ġpad ding",
      "Ġdetect ed",
      "Ġimplement ation",
      "Ġgue st",
      "ĠSM M",
      "PROT OCOL",
      "ac ity",
      "hand le",
      "Ġ* _",
      "ĠH andle",
      "res ult",
      "res olve",
      "Ġsm k",
      "Ġsynchron ize",
      "Ġsynchron ization",
      "Ġhu getlb",
      "Ġnotific ation",
      "Ġnotific ations",
      "Ġhelper s",
      "881 72",
      "fra g",
      "gen eve",
      "run ning",
      "wake up",
      "ĠQ P",
      "remo ve",
      "Ġmin imum",
      "Ġunit s",
      "Ġlook up",
      "ĠIF LA",
      "Ġmod probe",
      "print k",
      "Ġauto load",
      "RESIZ EX",
      "SH ED",
      "dq buf",
      "Ġcap acity",
      "Ġtw ice",
      "Ġpvr usb",
      "Ġmnt get",
      "Ġbat adv",
      "Ġoffs ets",
      "com ing",
      "Ġconst ants",
      "app end",
      "ĠCon vert",
      "Ġexc lusive",
      "ĠIn itialize",
      "Ġlon g",
      "Ġregul atory",
      "Ġnexth op",
      "Ġplugin s",
      "Ġparamet ers",
      "GRO UP",
      "QU ANTU",
      "QUE UE",
      "Sta ging",
      "bro adcast",
      "ev ict",
      "gra de",
      "jo in",
      "mig rate",
      "margin s",
      "mmedi ate",
      "spa wn",
      "Ġra cy",
      "Ġacp i",
      "Ġsing le",
      "defin ed",
      "Ġpur ge",
      "Ġuvc video",
      "Ġmpt cp",
      "Ġmcb a",
      "anot ify",
      "Ġreco very",
      "Ġrecla im",
      "Ġdup licate",
      "Ġdyn amic",
      "Ġille gal",
      "Ġvirt ual",
      "Ġvide o",
      "Ġviv id",
      "Ġrunt ime",
      "Ġconso le",
      "Ġjour nal",
      "membar rier",
      "Ġnetlb l",
      "Ġinform ation",
      "Ġasynchron ous",
      "ATOM IC",
      "Ġparano ia",
      "NOFAI L",
      "QUANTU M",
      "1 0",
      "1 6",
      "1 00",
      "2 0",
      "3 8",
      "5 0",
      "7 0",
      "8 19",
      "9 0",
      "A B",
      "B R",
      "C H",
      "C I",
      "C T",
      "C ON",
      "C RE",
      "C OM",
      "D G",
      "E C",
      "E E",
      "E AT",
      "E ST",
      "E PROTO",
      "E RED",
      "F ree",
      "F RE",
      "F EAT",
      "G S",
      "I S",
      "L E",
      "L Y",
      "M O",
      "M ax",
      "N U",
      "P age",
      "P acket",
      "P ER",
      "R P",
      "R x",
      "R FO",
      "R ANGE",
      "R AM",
      "S P",
      "S S",
      "S TR",
      "S ED",
      "S ENT",
      "S YN",
      "S CON",
      "T F",
      "T O",
      "T P",
      "T S",
      "T ER",
      "U G",
      "V L",
      "W R",
      "a le",
      "a ce",
      "a io",
      "a cce",
      "a ving",
      "b h",
      "b or",
      "b dev",
      "b cast",
      "b reak",
      "b alance",
      "b vec",
      "c all",
      "c ls",
      "c allback",
      "d a",
      "d r",
      "d t",
      "d at",
      "d ist",
      "d one",
      "d etach",
      "e o",
      "e at",
      "f il",
      "f init",
      "f ib",
      "f pu",
      "f anotify",
      "g o",
      "g or",
      "g ed",
      "g ress",
      "g as",
      "g adget",
      "h ig",
      "h ore",
      "h ub",
      "h locks",
      "i ck",
      "i or",
      "i ed",
      "i ma",
      "i queue",
      "i eve",
      "i code",
      "k l",
      "k ed",
      "k cm",
      "l f",
      "l er",
      "l on",
      "l ue",
      "l fb",
      "m k",
      "m ad",
      "m rp",
      "m ant",
      "m fd",
      "m ust",
      "m ark",
      "m advise",
      "n h",
      "n i",
      "n r",
      "n x",
      "n er",
      "n sh",
      "o S",
      "o b",
      "o st",
      "o ss",
      "o sk",
      "o om",
      "p c",
      "p le",
      "p id",
      "p ack",
      "p ol",
      "p ee",
      "p ull",
      "p cpu",
      "p one",
      "p lace",
      "p ie",
      "p mu",
      "q s",
      "q fq",
      "r b",
      "r s",
      "r dev",
      "r map",
      "r int",
      "r ans",
      "r ng",
      "r ink",
      "r ssi",
      "s a",
      "s f",
      "s on",
      "s ce",
      "s ack",
      "s ap",
      "s lu",
      "s fb",
      "s ource",
      "s ignal",
      "s pec",
      "t b",
      "t g",
      "t ion",
      "t im",
      "t mc",
      "t ctx",
      "t rap",
      "t bl",
      "u z",
      "u led",
      "u ards",
      "v p",
      "v ed",
      "v irt",
      "v cs",
      "v gem",
      "v ision",
      "w er",
      "w ap",
      "w ant",
      "w iphy",
      "y ing",
      "y nt",
      "z alloc",
      "Ġ #",
      "Ġ (",
      "Ġ /",
      "Ġ 2",
      "Ġ 9",
      "Ġ |",
      "Ġ et",
      "Ġ let",
      "Ġ ld",
      "Ġ 64",
      "Ġ 32",
      "Ġ edge",
      "in f",
      "in st",
      "in vo",
      "in put",
      "in valid",
      "in sn",
      "in coming",
      "re al",
      "re gist",
      "re name",
      "re port",
      "re curs",
      "re store",
      "re ncy",
      "Ġf d",
      "Ġf w",
      "Ġf ou",
      "Ġf ill",
      "Ġf ont",
      "er net",
      "er ic",
      "er ialize",
      "er form",
      "et y",
      "et ch",
      "et urn",
      "Ġin ex",
      "Ġin line",
      "Ġin sn",
      "Ġin crement",
      "Ġin ner",
      "Ġa li",
      "Ġa mp",
      "Ġa rm",
      "Ġa mount",
      "Ġc c",
      "Ġc y",
      "Ġc lo",
      "Ġc op",
      "Ġc ir",
      "Ġc lu",
      "Ġc ake",
      "Ġc ard",
      "Ġc ipso",
      "Ġc pu",
      "Ġc ards",
      "Ġc bs",
      "Ġc lon",
      "Ġs an",
      "Ġs ig",
      "Ġs is",
      "Ġs ame",
      "Ġs oft",
      "Ġs om",
      "Ġs af",
      "ck et",
      "or ing",
      "or ter",
      "or be",
      "() '",
      "() /",
      "le ave",
      "de c",
      "de li",
      "de script",
      "it ize",
      "it ions",
      "it ting",
      "at ors",
      "at omic",
      "at tern",
      "lo ok",
      "Ġt rap",
      "Ġp tr",
      "Ġp can",
      "Ġp sock",
      "Ġp crypt",
      "Ġp attern",
      "ing s",
      "al cul",
      "he st",
      "net ns",
      "se gs",
      "se ssion",
      "se lf",
      "Ġu mem",
      "Ġu md",
      "Ġu lp",
      "st v",
      "st er",
      "st ack",
      "st ics",
      "ce pt",
      "Ġm et",
      "Ġm an",
      "Ġm ed",
      "Ġm rp",
      "Ġm bind",
      "Ġm ust",
      "Ġm sg",
      "Ġm cs",
      "Ġm ark",
      "Ġm type",
      "ou nce",
      "ou ple",
      "Ġre ce",
      "Ġre la",
      "Ġre du",
      "Ġre check",
      "Ġre size",
      "Ġre ally",
      "Ġre mount",
      "Ġre iserfs",
      "Ġre trans",
      "Ġre submit",
      "Ġre build",
      "Ġre quired",
      "ct or",
      "Ġb ut",
      "Ġb ig",
      "Ġb low",
      "Ġb vec",
      "Ġb tf",
      "Ġd p",
      "Ġd s",
      "Ġd if",
      "Ġd iag",
      "Ġd ying",
      "ro om",
      "ro pp",
      "Ġw ill",
      "Ġw ire",
      "Ġw rap",
      "Ġw dm",
      "Ġw Max",
      "ad ap",
      "ad ow",
      "ss can",
      "ra in",
      "ra ct",
      "Ġi mb",
      "Ġi mon",
      "Ġi mpro",
      "Ġi mmediate",
      "Ġo ve",
      "Ġo ld",
      "Ġo vs",
      "Ġo bject",
      "Ġn d",
      "Ġn s",
      "Ġn at",
      "Ġn ci",
      "Ġn sim",
      "Ġde ath",
      "Ġde pen",
      "Ġde finit",
      "Ġh dp",
      "Ġh tb",
      "ar g",
      "ar ch",
      "ar ound",
      "ar get",
      "ar ded",
      "id r",
      "nd le",
      "nd up",
      "il fs",
      "il la",
      "Ġfor k",
      "Ġfor mat",
      "Ġfor bid",
      "ue size",
      "tr ieve",
      "ip sec",
      "ip mr",
      "ur b",
      "ur ious",
      "ma x",
      "ma y",
      "io c",
      "io l",
      "sc an",
      "sc pa",
      "sc ri",
      "Ġuse d",
      "ex fat",
      "Ġv ma",
      "Ġv fs",
      "Ġv ers",
      "Ġv cs",
      "Ġv sscan",
      "fs gs",
      "ĠR D",
      "ĠR X",
      "ĠR DMA",
      "ĠR eturn",
      "Ġpo ol",
      "ge bl",
      "nt ity",
      "Ġle g",
      "Ġle ading",
      "Ġr c",
      "Ġr oute",
      "ll s",
      "ll ap",
      "ll ink",
      "Ġk str",
      "Ġk mem",
      "Ġk asan",
      "Ġk object",
      "Ġk thread",
      "Ġk zalloc",
      "us ing",
      "us age",
      "li sh",
      "Ġun ch",
      "Ġun par",
      "Ġun sub",
      "Ġun locking",
      "Ġun wind",
      "Ġun checked",
      "Ġun registration",
      "Ġun defined",
      "Ġmem control",
      "co ok",
      "co lor",
      "sh are",
      "ut ion",
      "ut ed",
      "ut es",
      "ut ux",
      "free ze",
      "out q",
      "Ġleak age",
      "ch k",
      "ch or",
      "ch rdev",
      "Ġg f",
      "Ġg ro",
      "Ġg ive",
      "Ġg uard",
      "Ġg lue",
      "Ġg uards",
      "Ġg scpa",
      "un k",
      "un link",
      "un hash",
      "un wind",
      "set sockopt",
      "init ialized",
      "Ġfa sync",
      "la pp",
      "Ġal gor",
      "ig et",
      "ig mp",
      "Ġsock hash",
      "Ġsock addr",
      "Ġdev m",
      "if index",
      "if ace",
      "map ped",
      "map ping",
      "is m",
      "is otp",
      "mo de",
      "ref cnt",
      "ĠA PI",
      "Ġco ver",
      "Ġco llap",
      "Ġcon d",
      "Ġcon sistent",
      "am rad",
      "Ġcall ers",
      "SA LLOC",
      "pt race",
      "Ġan y",
      "Ġan chor",
      "sched ule",
      "ĠN e",
      "ĠN ull",
      "ĠN ET",
      "ĠN LA",
      "usb net",
      "ist ics",
      "Ġst ub",
      "Ġat usb",
      "bu st",
      "get name",
      "get sockopt",
      "Ġen ter",
      "ic ious",
      "Ġnot ifi",
      "ĠRe use",
      "ĠRe port",
      "ĠRe work",
      "con d",
      "con ntrack",
      "Ġq fq",
      "per ly",
      "Ġe val",
      "Ġe cache",
      "ĠP F",
      "ĠP erform",
      "Ġusb fs",
      "Ġusb lp",
      "Ġusb touch",
      "pro t",
      "pro tect",
      "vm x",
      "vm ci",
      "vm cs",
      "ĠS G",
      "ĠS anity",
      "ĠS witch",
      "ĠS ave",
      "ĠS IOC",
      "ĠS RCU",
      "ĠS erialize",
      "Ġbu cket",
      "Ġbu ndle",
      "Ġca using",
      "Ġstr set",
      "um em",
      "ĠD irect",
      "ĠD isable",
      "Ġdo ing",
      "block dev",
      "ht b",
      "inter face",
      "Ġset sockopt",
      "ĠC AN",
      "ĠC orrect",
      "ĠC LO",
      "ĠC DC",
      "queue s",
      "wa s",
      "ero fs",
      "Ġdon e",
      "Ġdata len",
      "Ġj mp",
      "Ġalloc ated",
      "IN ET",
      "IN LINE",
      "IN TER",
      "zero copy",
      "Ġlo gic",
      "MA P",
      "MA X",
      "nl dev",
      "mac sec",
      "ere d",
      "put peer",
      "Ġref use",
      "Ġref act",
      "Ġnet device",
      "ress ors",
      "DE LI",
      "DE BUG",
      "name space",
      "buf fer",
      "Ġsh mem",
      "Ġsh key",
      "Ġsh mlock",
      "Ġsh ould",
      "Ġsh utdown",
      "Ġsh adow",
      "Ġpath s",
      "ers pan",
      "cm d",
      "rx e",
      "Ġma y",
      "Ġne ver",
      "Ġne cess",
      "int s",
      "Ġse cond",
      "Ġup per",
      "Ġannot ations",
      "sock fd",
      "Ġnf netlink",
      "Ġposs ib",
      "gs o",
      "Ġas oc",
      "Ġsc si",
      "fa st",
      "port s",
      "ĠT rans",
      "Ġlist ified",
      "Ġmap ping",
      "cre ated",
      "par m",
      "Ġtr c",
      "Ġtr im",
      "ID I",
      "ID IOC",
      "Ġit em",
      "Ġnon blocking",
      "Ġsched uled",
      "ib utes",
      "ĠG PF",
      "ĠG SO",
      "ĠM ove",
      "ĠM MU",
      "ĠM PT",
      "ĠM IDI",
      "Ġpa ssing",
      "ty pes",
      "Ġsize s",
      "Ġrcu idle",
      "Ġget ting",
      "Ġcleanup s",
      "Ġinter val",
      "Ġfailure s",
      "Ġbet ter",
      "Ġbet op",
      "irq son",
      "do i",
      "ĠO pen",
      "ĠO DEBUG",
      "leak s",
      "Ġpre mat",
      "Ġret ake",
      "Ġover write",
      "Ġover lapp",
      "qu ery",
      "sp rint",
      "ser ver",
      "ser vice",
      "Ġdis allow",
      "Ġdis mant",
      "ĠE X",
      "ĠE ST",
      "ĠE GA",
      "attr s",
      "Ġallow ed",
      "ĠDon t",
      "Ġreturn s",
      "Ġreturn ed",
      "Ġwrite s",
      "Ġpolicy db",
      "Ġgen hd",
      "as ix",
      "che s",
      "file map",
      "ok e",
      "si w",
      "sse d",
      "ĠB reak",
      "ĠB IO",
      "ĠB TF",
      "ĠB UG",
      "Ġte am",
      "Ġte ardown",
      "Ġdi sk",
      "Ġupd ating",
      "Ġqueue s",
      "Ġqueue ing",
      "Ġad v",
      "Ġad utux",
      "Ġsp urious",
      "Ġcase s",
      "wait q",
      "ron t",
      "deref erence",
      "ide ntity",
      "key code",
      "Ġass ump",
      "RO Y",
      "Ġfs ync",
      "Ġcre ated",
      "Ġcount ing",
      "hw rng",
      "min or",
      "ĠV GA",
      "ĠV IDIOC",
      "Ġblk dev",
      "Ġstat us",
      "Ġstat istics",
      "Ġclear ing",
      "Ġclear ance",
      "Ġcance ling",
      "ĠIP V",
      "ĠIP v",
      "rcv buf",
      "Ġgener ated",
      "Ġinode s",
      "Ġtable dist",
      "Ġrest art",
      "Ġbound ary",
      "Ġconnect ion",
      "Ġconnect ions",
      "Ġqdisc s",
      "Ġele vator",
      "Ġchange s",
      "Ġopen ing",
      "NO RM",
      "NO WA",
      "ec ute",
      "ĠVM A",
      "Ġdebug ging",
      "sub class",
      "Ġro bust",
      "Ġty pes",
      "Ġmode l",
      "Ġic sk",
      "Ġic log",
      "Ġvm x",
      "cul ar",
      "fq s",
      "fix ed",
      "tty printk",
      "Ġint el",
      "Ġac quir",
      "Ġser ialize",
      "Ġser vice",
      "Ġsile ntly",
      "Ġreference s",
      "Ġcorrupt ed",
      "LIN K",
      "di rect",
      "ger able",
      "mon o",
      "og itech",
      "sq o",
      "Ġlay ers",
      "Ġsub list",
      "Ġsub flow",
      "Ġsub mission",
      "Ġtrack ing",
      "Ġpe ers",
      "Ġpe gas",
      "stat us",
      "ĠRE Q",
      "bit s",
      "bit map",
      "ke ys",
      "no stics",
      "ph ic",
      "ĠL imit",
      "ĠL ogitech",
      "Ġres ult",
      "enable d",
      "Ġid r",
      "Ġrx e",
      "ĠAl ways",
      "Ġxt s",
      "Ġmax packet",
      "CM D",
      "are a",
      "nf t",
      "path s",
      "path tbl",
      "Ġfra gment",
      "Ġpr ism",
      "cell s",
      "Ġrep orter",
      "Ġdriver s",
      "Ġdefer red",
      "Ġvar ious",
      "Ġkill ing",
      "Ġaccept ed",
      "Ġtag set",
      "Ġspl itting",
      "Ġcalcul ate",
      "BU FS",
      "DI SCON",
      "DI SALLOC",
      "part ial",
      "part ition",
      "Ġ1 6",
      "Ġla ck",
      "Ġla pic",
      "Ġact ive",
      "Ġaut h",
      "Ġsl ip",
      "Ġsl can",
      "Ġtak ing",
      "Ġmis use",
      "Ġmis match",
      "Ġimplement ations",
      "Ġconcur rency",
      "Ġstart up",
      "ĠPro perly",
      "Ġcache s",
      "Ġneigh bor",
      "ĠEx ecute",
      "LI ST",
      "LI SHED",
      "hd r",
      "hd lc",
      "hand ler",
      "Ġli ke",
      "Ġinsert ion",
      "Ġsm all",
      "Ġtt usb",
      "edge port",
      "Ġhu ge",
      "Ġcaref ully",
      "Ġclean ly",
      "Ġtrig ger",
      "Ġmetho d",
      "72 0",
      "NE W",
      "NE CT",
      "cipso v",
      "fra gs",
      "gen eric",
      "sb and",
      "tc index",
      "te k",
      "te am",
      "ĠQ oS",
      "remo val",
      "ctr l",
      "ctr ls",
      "Ġbase d",
      "Ġbreak age",
      "Ġdestruct ion",
      "Ġleave s",
      "Ġunit ialized",
      "VMX E",
      "ĠSC SI",
      "ĠSC TP",
      "ĠIF F",
      "Ġiter ators",
      "ADD RFO",
      "Ġaccount ing",
      "ENT ERED",
      "RESIZ E",
      "av ail",
      "av ior",
      "dir ty",
      "mt d",
      "nfs d",
      "own er",
      "Ġtim ers",
      "Ġtermin ation",
      "Ġpref ix",
      "Ġpref etch",
      "align ed",
      "align ment",
      "Ġmon itor",
      "Ġmatch ing",
      "Ġwake up",
      "Ġdescript or",
      "Ġdescript ors",
      "Ġhyper v",
      "exec uted",
      "Ġrad ix",
      "Ġrad io",
      "comm on",
      "Ġgra b",
      "Ġgra phic",
      "ĠAss ure",
      "ĠAss ign",
      "Ġconfig uration",
      "Ġbeh ave",
      "Ġbeh avior",
      "ĠCo ver",
      "ĠCle ar",
      "ĠCle anup",
      "Ġneed s",
      "ĠID R",
      "fail ure",
      "Ġcha osk",
      "Ġcha ract",
      "Ġchan nel",
      "Ġchan ging",
      "Ġprec ision",
      "Ġprec alcul",
      "Ġassert ion",
      "Ġigmp v",
      "Ġsuccessf ul",
      "Ġsuccessf ully",
      "Ġlive locks",
      "CLO SED",
      "IP v",
      "ele m",
      "fere nt",
      "flex cop",
      "met a",
      "walk er",
      "ĠJ IT",
      "reser ve",
      "Ġfat al",
      "Ġcla sses",
      "Ġslot s",
      "Ġspec ific",
      "Ġtra versal",
      "Ġtap rio",
      "Ġpan ic",
      "Ġpub lic",
      "stim ation",
      "Ġmal icious",
      "Ġrepa ir",
      "Ġdisc arded",
      "Ġwq e",
      "ĠFor bid",
      "Ġown er",
      "Ġdecomp ressors",
      "trig gerable",
      "Ġpolic ies",
      "Ġka sprint",
      "char dev",
      "ĠAcce ss",
      "Ġlog itech",
      "Ġexp ression",
      "Ġseg fault",
      "TRA CE",
      "Ġprint ing",
      "Ġmultip le",
      "819 2",
      "AB LISHED",
      "BR ADD",
      "CH ANGE",
      "CRE ATE",
      "COM P",
      "DG RAM",
      "FRE E",
      "Packet Size",
      "SYN C",
      "eo d",
      "eat ure",
      "hig hest",
      "nx t",
      "pee k",
      "slu b",
      "spec ial",
      "tim ers",
      "uz z",
      "ynt h",
      "Ġet f",
      "Ġld usb",
      "invo ke",
      "Ġinex act",
      "Ġali en",
      "Ġclo sing",
      "Ġcop ies",
      "Ġcir cular",
      "Ġsis usb",
      "Ġsom e",
      "Ġsaf ety",
      "deli ver",
      "look up",
      "Ġmed ia",
      "Ġrela x",
      "Ġredu cing",
      "Ġresize s",
      "Ġremount ing",
      "Ġresubmit ting",
      "Ġblow n",
      "Ġdif ferent",
      "Ġdiag nostics",
      "ropp ed",
      "Ġwire less",
      "Ġwrap per",
      "ĠwMax PacketSize",
      "adap ter",
      "Ġimb alance",
      "Ġimpro per",
      "Ġdefinit ion",
      "Ġhdp vr",
      "illa ble",
      "scri be",
      "Ġvers ion",
      "Ġvsscan f",
      "fsgs base",
      "gebl it",
      "Ġkstr ndup",
      "Ġkmem leak",
      "Ġunch arge",
      "Ġunsub scribe",
      "Ġalgor ith",
      "amrad io",
      "ĠNET DEV",
      "Ġnotifi er",
      "ĠReport Size",
      "Ġeval u",
      "Ġusbtouch screen",
      "ĠSIOC BRADD",
      "ĠCorrect ly",
      "ĠCLO SE",
      "Ġrefact oring",
      "DELI F",
      "Ġnecess ary",
      "Ġpossib ly",
      "ĠMPT CP",
      "Ġpremat ure",
      "Ġoverlapp ing",
      "Ġdismant le",
      "ĠEST ABLISHED",
      "Ġassump tion",
      "NORM AL",
      "NOWA IT",
      "Ġacquir ing",
      "Ġpegas us",
      "DISCON NECT",
      "DISALLOC ATE",
      "ADDRFO RM",
      "Ġchaosk ey",
      "Ġprecalcul ate",
      "Ġkasprint f",
      "\" \"",
      "' ve",
      "( !",
      ") ->",
      "0 2",
      "0 8",
      "1 4",
      "1 78",
      "2 4",
      "2 00",
      "3 0",
      "3 3",
      "3 5",
      "4 5",
      "4 70",
      "5 2",
      "5 9",
      "5 100",
      "5 33",
      "6 81",
      "6 50",
      "6 02",
      "7 5",
      "7 9",
      "7 00",
      "9 1",
      "9 80",
      "9 00",
      "9 06",
      "A P",
      "A S",
      "A X",
      "A b",
      "A PI",
      "A SE",
      "B A",
      "B D",
      "B Q",
      "B AL",
      "B LOCK",
      "B IND",
      "B LE",
      "B BA",
      "C K",
      "C N",
      "C O",
      "C ING",
      "C DC",
      "C VE",
      "C BQ",
      "D B",
      "D N",
      "D ON",
      "D AT",
      "D ING",
      "D YN",
      "E B",
      "E M",
      "E W",
      "E Y",
      "E IN",
      "E MA",
      "E AD",
      "E MU",
      "E PER",
      "F I",
      "F R",
      "F T",
      "F ER",
      "F EN",
      "F ence",
      "F TRACE",
      "G L",
      "G RE",
      "G ET",
      "G IC",
      "G ATE",
      "G INFO",
      "H O",
      "H R",
      "H ER",
      "H CP",
      "H TO",
      "I X",
      "I LL",
      "I AL",
      "I MA",
      "I CE",
      "I VE",
      "I BLE",
      "J FS",
      "K S",
      "K OB",
      "K EY",
      "K ILL",
      "L B",
      "L D",
      "L P",
      "L S",
      "L OC",
      "L AT",
      "L ET",
      "M M",
      "M ake",
      "M SAN",
      "M TU",
      "M EMA",
      "M HO",
      "N G",
      "N CM",
      "N ENT",
      "N MAP",
      "N IX",
      "O I",
      "O W",
      "O LL",
      "O KS",
      "P U",
      "P AL",
      "P RE",
      "P EN",
      "P EE",
      "P LY",
      "R C",
      "R H",
      "R UN",
      "R UP",
      "R ATE",
      "S D",
      "S G",
      "S V",
      "S UN",
      "T A",
      "T Y",
      "T PO",
      "T ail",
      "T HTO",
      "T IBLE",
      "U se",
      "U AR",
      "U probe",
      "U RB",
      "U BSAN",
      "U LP",
      "V S",
      "V ID",
      "V ER",
      "W rite",
      "Y a",
      "Y ED",
      "[ ]",
      "] :",
      "_ *",
      "_ ]",
      "a set",
      "a ir",
      "a cm",
      "a es",
      "a ded",
      "a ead",
      "a ger",
      "a ild",
      "a ux",
      "a com",
      "a head",
      "b c",
      "b o",
      "b p",
      "b ing",
      "b ed",
      "b ot",
      "b ers",
      "b to",
      "b our",
      "b lob",
      "b tab",
      "b print",
      "b tf",
      "b os",
      "b inf",
      "b ounce",
      "b lish",
      "c c",
      "c d",
      "c q",
      "c r",
      "c at",
      "c al",
      "c ip",
      "c sk",
      "c cp",
      "c map",
[...]
